[PAD]	0
<unk>	0
[SEP]	0
[MASK]	0
[CLS]	0
<s>	0
</s>	0
[unused0]	0
[unused1]	0
[unused2]	0
[unused3]	0
[unused4]	0
[unused5]	0
[unused6]	0
[unused7]	0
[unused8]	0
[unused9]	0
[unused10]	0
[unused11]	0
[unused12]	0
[unused13]	0
[unused14]	0
[unused15]	0
[unused16]	0
[unused17]	0
[unused18]	0
[unused19]	0
[unused20]	0
[unused21]	0
[unused22]	0
[unused23]	0
[unused24]	0
[unused25]	0
[unused26]	0
[unused27]	0
[unused28]	0
[unused29]	0
[unused30]	0
[unused31]	0
[unused32]	0
[unused33]	0
[unused34]	0
[unused35]	0
[unused36]	0
[unused37]	0
[unused38]	0
[unused39]	0
[unused40]	0
[unused41]	0
[unused42]	0
[unused43]	0
[unused44]	0
[unused45]	0
[unused46]	0
[unused47]	0
[unused48]	0
[unused49]	0
[unused50]	0
[unused51]	0
[unused52]	0
[unused53]	0
[unused54]	0
[unused55]	0
[unused56]	0
[unused57]	0
[unused58]	0
[unused59]	0
[unused60]	0
[unused61]	0
[unused62]	0
[unused63]	0
[unused64]	0
[unused65]	0
[unused66]	0
[unused67]	0
[unused68]	0
[unused69]	0
[unused70]	0
[unused71]	0
[unused72]	0
[unused73]	0
[unused74]	0
[unused75]	0
[unused76]	0
[unused77]	0
[unused78]	0
[unused79]	0
[unused80]	0
[unused81]	0
[unused82]	0
[unused83]	0
[unused84]	0
[unused85]	0
[unused86]	0
[unused87]	0
[unused88]	0
[unused89]	0
[unused90]	0
[unused91]	0
[unused92]	0
[unused93]	0
[unused94]	0
[unused95]	0
[unused96]	0
[unused97]	0
[unused98]	0
[unused99]	0
[unused100]	0
[unused101]	0
[unused102]	0
[unused103]	0
[unused104]	0
[unused105]	0
[unused106]	0
[unused107]	0
[unused108]	0
[unused109]	0
[unused110]	0
[unused111]	0
[unused112]	0
[unused113]	0
[unused114]	0
[unused115]	0
[unused116]	0
[unused117]	0
[unused118]	0
[unused119]	0
[unused120]	0
[unused121]	0
[unused122]	0
[unused123]	0
[unused124]	0
[unused125]	0
[unused126]	0
[unused127]	0
[unused128]	0
[unused129]	0
[unused130]	0
[unused131]	0
[unused132]	0
[unused133]	0
[unused134]	0
[unused135]	0
[unused136]	0
[unused137]	0
[unused138]	0
[unused139]	0
[unused140]	0
[unused141]	0
[unused142]	0
[unused143]	0
[unused144]	0
[unused145]	0
[unused146]	0
[unused147]	0
[unused148]	0
[unused149]	0
[unused150]	0
[unused151]	0
[unused152]	0
[unused153]	0
[unused154]	0
[unused155]	0
[unused156]	0
[unused157]	0
[unused158]	0
[unused159]	0
[unused160]	0
[unused161]	0
[unused162]	0
[unused163]	0
[unused164]	0
[unused165]	0
[unused166]	0
[unused167]	0
[unused168]	0
[unused169]	0
[unused170]	0
[unused171]	0
[unused172]	0
[unused173]	0
[unused174]	0
[unused175]	0
[unused176]	0
[unused177]	0
[unused178]	0
[unused179]	0
[unused180]	0
[unused181]	0
[unused182]	0
[unused183]	0
[unused184]	0
[unused185]	0
[unused186]	0
[unused187]	0
[unused188]	0
[unused189]	0
[unused190]	0
[unused191]	0
[unused192]	0
[unused193]	0
[unused194]	0
[unused195]	0
[unused196]	0
[unused197]	0
[unused198]	0
[unused199]	0
[unused200]	0
[unused201]	0
[unused202]	0
[unused203]	0
[unused204]	0
[unused205]	0
[unused206]	0
[unused207]	0
[unused208]	0
[unused209]	0
[unused210]	0
[unused211]	0
[unused212]	0
[unused213]	0
[unused214]	0
[unused215]	0
[unused216]	0
[unused217]	0
[unused218]	0
[unused219]	0
[unused220]	0
[unused221]	0
[unused222]	0
[unused223]	0
[unused224]	0
[unused225]	0
[unused226]	0
[unused227]	0
[unused228]	0
[unused229]	0
[unused230]	0
[unused231]	0
[unused232]	0
[unused233]	0
[unused234]	0
[unused235]	0
[unused236]	0
[unused237]	0
[unused238]	0
[unused239]	0
[unused240]	0
[unused241]	0
[unused242]	0
[unused243]	0
[unused244]	0
[unused245]	0
[unused246]	0
[unused247]	0
[unused248]	0
[unused249]	0
[unused250]	0
[unused251]	0
[unused252]	0
[unused253]	0
[unused254]	0
[unused255]	0
[unused256]	0
[unused257]	0
[unused258]	0
[unused259]	0
[unused260]	0
[unused261]	0
[unused262]	0
[unused263]	0
[unused264]	0
[unused265]	0
[unused266]	0
[unused267]	0
[unused268]	0
[unused269]	0
[unused270]	0
[unused271]	0
[unused272]	0
[unused273]	0
[unused274]	0
[unused275]	0
[unused276]	0
[unused277]	0
[unused278]	0
[unused279]	0
[unused280]	0
[unused281]	0
[unused282]	0
[unused283]	0
[unused284]	0
[unused285]	0
[unused286]	0
[unused287]	0
[unused288]	0
[unused289]	0
[unused290]	0
[unused291]	0
[unused292]	0
[unused293]	0
[unused294]	0
[unused295]	0
[unused296]	0
[unused297]	0
[unused298]	0
[unused299]	0
[unused300]	0
[unused301]	0
[unused302]	0
[unused303]	0
[unused304]	0
[unused305]	0
[unused306]	0
[unused307]	0
[unused308]	0
[unused309]	0
[unused310]	0
[unused311]	0
[unused312]	0
[unused313]	0
[unused314]	0
[unused315]	0
[unused316]	0
[unused317]	0
[unused318]	0
[unused319]	0
[unused320]	0
[unused321]	0
[unused322]	0
[unused323]	0
[unused324]	0
[unused325]	0
[unused326]	0
[unused327]	0
[unused328]	0
[unused329]	0
[unused330]	0
[unused331]	0
[unused332]	0
[unused333]	0
[unused334]	0
[unused335]	0
[unused336]	0
[unused337]	0
[unused338]	0
[unused339]	0
[unused340]	0
[unused341]	0
[unused342]	0
[unused343]	0
[unused344]	0
[unused345]	0
[unused346]	0
[unused347]	0
[unused348]	0
[unused349]	0
[unused350]	0
[unused351]	0
[unused352]	0
[unused353]	0
[unused354]	0
[unused355]	0
[unused356]	0
[unused357]	0
[unused358]	0
[unused359]	0
[unused360]	0
[unused361]	0
[unused362]	0
[unused363]	0
[unused364]	0
[unused365]	0
[unused366]	0
[unused367]	0
[unused368]	0
[unused369]	0
[unused370]	0
[unused371]	0
[unused372]	0
[unused373]	0
[unused374]	0
[unused375]	0
[unused376]	0
[unused377]	0
[unused378]	0
[unused379]	0
[unused380]	0
[unused381]	0
[unused382]	0
[unused383]	0
[unused384]	0
[unused385]	0
[unused386]	0
[unused387]	0
[unused388]	0
[unused389]	0
[unused390]	0
[unused391]	0
[unused392]	0
[unused393]	0
[unused394]	0
[unused395]	0
[unused396]	0
[unused397]	0
[unused398]	0
[unused399]	0
[unused400]	0
[unused401]	0
[unused402]	0
[unused403]	0
[unused404]	0
[unused405]	0
[unused406]	0
[unused407]	0
[unused408]	0
[unused409]	0
[unused410]	0
[unused411]	0
[unused412]	0
[unused413]	0
[unused414]	0
[unused415]	0
[unused416]	0
[unused417]	0
[unused418]	0
[unused419]	0
[unused420]	0
[unused421]	0
[unused422]	0
[unused423]	0
[unused424]	0
[unused425]	0
[unused426]	0
[unused427]	0
[unused428]	0
[unused429]	0
[unused430]	0
[unused431]	0
[unused432]	0
[unused433]	0
[unused434]	0
[unused435]	0
[unused436]	0
[unused437]	0
[unused438]	0
[unused439]	0
[unused440]	0
[unused441]	0
[unused442]	0
[unused443]	0
[unused444]	0
[unused445]	0
[unused446]	0
[unused447]	0
[unused448]	0
[unused449]	0
[unused450]	0
[unused451]	0
[unused452]	0
[unused453]	0
[unused454]	0
[unused455]	0
[unused456]	0
[unused457]	0
[unused458]	0
[unused459]	0
[unused460]	0
[unused461]	0
[unused462]	0
[unused463]	0
[unused464]	0
[unused465]	0
[unused466]	0
[unused467]	0
[unused468]	0
[unused469]	0
[unused470]	0
[unused471]	0
[unused472]	0
[unused473]	0
[unused474]	0
[unused475]	0
[unused476]	0
[unused477]	0
[unused478]	0
[unused479]	0
[unused480]	0
[unused481]	0
[unused482]	0
[unused483]	0
[unused484]	0
[unused485]	0
[unused486]	0
[unused487]	0
[unused488]	0
[unused489]	0
[unused490]	0
[unused491]	0
[unused492]	0
[unused493]	0
[unused494]	0
[unused495]	0
[unused496]	0
[unused497]	0
[unused498]	0
[unused499]	0
[unused500]	0
[unused501]	0
[unused502]	0
[unused503]	0
[unused504]	0
[unused505]	0
[unused506]	0
[unused507]	0
[unused508]	0
[unused509]	0
[unused510]	0
[unused511]	0
[unused512]	0
[unused513]	0
[unused514]	0
[unused515]	0
[unused516]	0
[unused517]	0
[unused518]	0
[unused519]	0
[unused520]	0
[unused521]	0
[unused522]	0
[unused523]	0
[unused524]	0
[unused525]	0
[unused526]	0
[unused527]	0
[unused528]	0
[unused529]	0
[unused530]	0
[unused531]	0
[unused532]	0
[unused533]	0
[unused534]	0
[unused535]	0
[unused536]	0
[unused537]	0
[unused538]	0
[unused539]	0
[unused540]	0
[unused541]	0
[unused542]	0
[unused543]	0
[unused544]	0
[unused545]	0
[unused546]	0
[unused547]	0
[unused548]	0
[unused549]	0
[unused550]	0
[unused551]	0
[unused552]	0
[unused553]	0
[unused554]	0
[unused555]	0
[unused556]	0
[unused557]	0
[unused558]	0
[unused559]	0
[unused560]	0
[unused561]	0
[unused562]	0
[unused563]	0
[unused564]	0
[unused565]	0
[unused566]	0
[unused567]	0
[unused568]	0
[unused569]	0
[unused570]	0
[unused571]	0
[unused572]	0
[unused573]	0
[unused574]	0
[unused575]	0
[unused576]	0
[unused577]	0
[unused578]	0
[unused579]	0
[unused580]	0
[unused581]	0
[unused582]	0
[unused583]	0
[unused584]	0
[unused585]	0
[unused586]	0
[unused587]	0
[unused588]	0
[unused589]	0
[unused590]	0
[unused591]	0
[unused592]	0
[unused593]	0
[unused594]	0
[unused595]	0
[unused596]	0
[unused597]	0
[unused598]	0
[unused599]	0
[unused600]	0
[unused601]	0
[unused602]	0
[unused603]	0
[unused604]	0
[unused605]	0
[unused606]	0
[unused607]	0
[unused608]	0
[unused609]	0
[unused610]	0
[unused611]	0
[unused612]	0
[unused613]	0
[unused614]	0
[unused615]	0
[unused616]	0
[unused617]	0
[unused618]	0
[unused619]	0
[unused620]	0
[unused621]	0
[unused622]	0
[unused623]	0
[unused624]	0
[unused625]	0
[unused626]	0
[unused627]	0
[unused628]	0
[unused629]	0
[unused630]	0
[unused631]	0
[unused632]	0
[unused633]	0
[unused634]	0
[unused635]	0
[unused636]	0
[unused637]	0
[unused638]	0
[unused639]	0
[unused640]	0
[unused641]	0
[unused642]	0
[unused643]	0
[unused644]	0
[unused645]	0
[unused646]	0
[unused647]	0
[unused648]	0
[unused649]	0
[unused650]	0
[unused651]	0
[unused652]	0
[unused653]	0
[unused654]	0
[unused655]	0
[unused656]	0
[unused657]	0
[unused658]	0
[unused659]	0
[unused660]	0
[unused661]	0
[unused662]	0
[unused663]	0
[unused664]	0
[unused665]	0
[unused666]	0
[unused667]	0
[unused668]	0
[unused669]	0
[unused670]	0
[unused671]	0
[unused672]	0
[unused673]	0
[unused674]	0
[unused675]	0
[unused676]	0
[unused677]	0
[unused678]	0
[unused679]	0
[unused680]	0
[unused681]	0
[unused682]	0
[unused683]	0
[unused684]	0
[unused685]	0
[unused686]	0
[unused687]	0
[unused688]	0
[unused689]	0
[unused690]	0
[unused691]	0
[unused692]	0
[unused693]	0
[unused694]	0
[unused695]	0
[unused696]	0
[unused697]	0
[unused698]	0
[unused699]	0
[unused700]	0
[unused701]	0
[unused702]	0
[unused703]	0
[unused704]	0
[unused705]	0
[unused706]	0
[unused707]	0
[unused708]	0
[unused709]	0
[unused710]	0
[unused711]	0
[unused712]	0
[unused713]	0
[unused714]	0
[unused715]	0
[unused716]	0
[unused717]	0
[unused718]	0
[unused719]	0
[unused720]	0
[unused721]	0
[unused722]	0
[unused723]	0
[unused724]	0
[unused725]	0
[unused726]	0
[unused727]	0
[unused728]	0
[unused729]	0
[unused730]	0
[unused731]	0
[unused732]	0
[unused733]	0
[unused734]	0
[unused735]	0
[unused736]	0
[unused737]	0
[unused738]	0
[unused739]	0
[unused740]	0
[unused741]	0
[unused742]	0
[unused743]	0
[unused744]	0
[unused745]	0
[unused746]	0
[unused747]	0
[unused748]	0
[unused749]	0
[unused750]	0
[unused751]	0
[unused752]	0
[unused753]	0
[unused754]	0
[unused755]	0
[unused756]	0
[unused757]	0
[unused758]	0
[unused759]	0
[unused760]	0
[unused761]	0
[unused762]	0
[unused763]	0
[unused764]	0
[unused765]	0
[unused766]	0
[unused767]	0
[unused768]	0
[unused769]	0
[unused770]	0
[unused771]	0
[unused772]	0
[unused773]	0
[unused774]	0
[unused775]	0
[unused776]	0
[unused777]	0
[unused778]	0
[unused779]	0
[unused780]	0
[unused781]	0
[unused782]	0
[unused783]	0
[unused784]	0
[unused785]	0
[unused786]	0
[unused787]	0
[unused788]	0
[unused789]	0
[unused790]	0
[unused791]	0
[unused792]	0
[unused793]	0
[unused794]	0
[unused795]	0
[unused796]	0
[unused797]	0
[unused798]	0
[unused799]	0
[unused800]	0
[unused801]	0
[unused802]	0
[unused803]	0
[unused804]	0
[unused805]	0
[unused806]	0
[unused807]	0
[unused808]	0
[unused809]	0
[unused810]	0
[unused811]	0
[unused812]	0
[unused813]	0
[unused814]	0
[unused815]	0
[unused816]	0
[unused817]	0
[unused818]	0
[unused819]	0
[unused820]	0
[unused821]	0
[unused822]	0
[unused823]	0
[unused824]	0
[unused825]	0
[unused826]	0
[unused827]	0
[unused828]	0
[unused829]	0
[unused830]	0
[unused831]	0
[unused832]	0
[unused833]	0
[unused834]	0
[unused835]	0
[unused836]	0
[unused837]	0
[unused838]	0
[unused839]	0
[unused840]	0
[unused841]	0
[unused842]	0
[unused843]	0
[unused844]	0
[unused845]	0
[unused846]	0
[unused847]	0
[unused848]	0
[unused849]	0
[unused850]	0
[unused851]	0
[unused852]	0
[unused853]	0
[unused854]	0
[unused855]	0
[unused856]	0
[unused857]	0
[unused858]	0
[unused859]	0
[unused860]	0
[unused861]	0
[unused862]	0
[unused863]	0
[unused864]	0
[unused865]	0
[unused866]	0
[unused867]	0
[unused868]	0
[unused869]	0
[unused870]	0
[unused871]	0
[unused872]	0
[unused873]	0
[unused874]	0
[unused875]	0
[unused876]	0
[unused877]	0
[unused878]	0
[unused879]	0
[unused880]	0
[unused881]	0
[unused882]	0
[unused883]	0
[unused884]	0
[unused885]	0
[unused886]	0
[unused887]	0
[unused888]	0
[unused889]	0
[unused890]	0
[unused891]	0
[unused892]	0
[unused893]	0
[unused894]	0
[unused895]	0
[unused896]	0
[unused897]	0
[unused898]	0
[unused899]	0
[unused900]	0
[unused901]	0
[unused902]	0
[unused903]	0
[unused904]	0
[unused905]	0
[unused906]	0
[unused907]	0
[unused908]	0
[unused909]	0
[unused910]	0
[unused911]	0
[unused912]	0
[unused913]	0
[unused914]	0
[unused915]	0
[unused916]	0
[unused917]	0
[unused918]	0
[unused919]	0
[unused920]	0
[unused921]	0
[unused922]	0
[unused923]	0
[unused924]	0
[unused925]	0
[unused926]	0
[unused927]	0
[unused928]	0
[unused929]	0
[unused930]	0
[unused931]	0
[unused932]	0
[unused933]	0
[unused934]	0
[unused935]	0
[unused936]	0
[unused937]	0
[unused938]	0
[unused939]	0
[unused940]	0
[unused941]	0
[unused942]	0
[unused943]	0
[unused944]	0
[unused945]	0
[unused946]	0
[unused947]	0
[unused948]	0
[unused949]	0
[unused950]	0
[unused951]	0
[unused952]	0
[unused953]	0
[unused954]	0
[unused955]	0
[unused956]	0
[unused957]	0
[unused958]	0
[unused959]	0
[unused960]	0
[unused961]	0
[unused962]	0
[unused963]	0
[unused964]	0
[unused965]	0
[unused966]	0
[unused967]	0
[unused968]	0
[unused969]	0
[unused970]	0
[unused971]	0
[unused972]	0
[unused973]	0
[unused974]	0
[unused975]	0
[unused976]	0
[unused977]	0
[unused978]	0
[unused979]	0
[unused980]	0
[unused981]	0
[unused982]	0
[unused983]	0
[unused984]	0
[unused985]	0
[unused986]	0
[unused987]	0
[unused988]	0
[unused989]	0
[unused990]	0
[unused991]	0
[unused992]	0
[unused993]	0
[unused994]	0
[unused995]	0
[unused996]	0
[unused997]	0
[unused998]	0
[unused999]	0
[unused1000]	0
[unused1001]	0
[unused1002]	0
[unused1003]	0
[unused1004]	0
[unused1005]	0
[unused1006]	0
[unused1007]	0
[unused1008]	0
[unused1009]	0
[unused1010]	0
[unused1011]	0
[unused1012]	0
[unused1013]	0
[unused1014]	0
[unused1015]	0
[unused1016]	0
[unused1017]	0
[unused1018]	0
[unused1019]	0
[unused1020]	0
[unused1021]	0
[unused1022]	0
[unused1023]	0
[unused1024]	0
[unused1025]	0
[unused1026]	0
[unused1027]	0
[unused1028]	0
[unused1029]	0
[unused1030]	0
[unused1031]	0
[unused1032]	0
[unused1033]	0
[unused1034]	0
[unused1035]	0
[unused1036]	0
[unused1037]	0
[unused1038]	0
[unused1039]	0
[unused1040]	0
[unused1041]	0
[unused1042]	0
[unused1043]	0
[unused1044]	0
[unused1045]	0
[unused1046]	0
[unused1047]	0
[unused1048]	0
[unused1049]	0
[unused1050]	0
[unused1051]	0
[unused1052]	0
[unused1053]	0
[unused1054]	0
[unused1055]	0
[unused1056]	0
[unused1057]	0
[unused1058]	0
[unused1059]	0
[unused1060]	0
[unused1061]	0
[unused1062]	0
[unused1063]	0
[unused1064]	0
[unused1065]	0
[unused1066]	0
[unused1067]	0
[unused1068]	0
[unused1069]	0
[unused1070]	0
[unused1071]	0
[unused1072]	0
[unused1073]	0
[unused1074]	0
[unused1075]	0
[unused1076]	0
[unused1077]	0
[unused1078]	0
[unused1079]	0
[unused1080]	0
[unused1081]	0
[unused1082]	0
[unused1083]	0
[unused1084]	0
[unused1085]	0
[unused1086]	0
[unused1087]	0
[unused1088]	0
[unused1089]	0
[unused1090]	0
[unused1091]	0
[unused1092]	0
[unused1093]	0
[unused1094]	0
[unused1095]	0
[unused1096]	0
[unused1097]	0
[unused1098]	0
[unused1099]	0
[unused1100]	0
[unused1101]	0
[unused1102]	0
[unused1103]	0
[unused1104]	0
[unused1105]	0
[unused1106]	0
[unused1107]	0
[unused1108]	0
[unused1109]	0
[unused1110]	0
[unused1111]	0
[unused1112]	0
[unused1113]	0
[unused1114]	0
[unused1115]	0
[unused1116]	0
[unused1117]	0
[unused1118]	0
[unused1119]	0
[unused1120]	0
[unused1121]	0
[unused1122]	0
[unused1123]	0
[unused1124]	0
[unused1125]	0
[unused1126]	0
[unused1127]	0
[unused1128]	0
[unused1129]	0
[unused1130]	0
[unused1131]	0
[unused1132]	0
[unused1133]	0
[unused1134]	0
[unused1135]	0
[unused1136]	0
[unused1137]	0
[unused1138]	0
[unused1139]	0
[unused1140]	0
[unused1141]	0
[unused1142]	0
[unused1143]	0
[unused1144]	0
[unused1145]	0
[unused1146]	0
[unused1147]	0
[unused1148]	0
[unused1149]	0
[unused1150]	0
[unused1151]	0
[unused1152]	0
[unused1153]	0
[unused1154]	0
[unused1155]	0
[unused1156]	0
[unused1157]	0
[unused1158]	0
[unused1159]	0
[unused1160]	0
[unused1161]	0
[unused1162]	0
[unused1163]	0
[unused1164]	0
[unused1165]	0
[unused1166]	0
[unused1167]	0
[unused1168]	0
[unused1169]	0
[unused1170]	0
[unused1171]	0
[unused1172]	0
[unused1173]	0
[unused1174]	0
[unused1175]	0
[unused1176]	0
[unused1177]	0
[unused1178]	0
[unused1179]	0
[unused1180]	0
[unused1181]	0
[unused1182]	0
[unused1183]	0
[unused1184]	0
[unused1185]	0
[unused1186]	0
[unused1187]	0
[unused1188]	0
[unused1189]	0
[unused1190]	0
[unused1191]	0
[unused1192]	0
[unused1193]	0
[unused1194]	0
[unused1195]	0
[unused1196]	0
[unused1197]	0
[unused1198]	0
[unused1199]	0
[unused1200]	0
[unused1201]	0
[unused1202]	0
[unused1203]	0
[unused1204]	0
[unused1205]	0
[unused1206]	0
[unused1207]	0
[unused1208]	0
[unused1209]	0
[unused1210]	0
[unused1211]	0
[unused1212]	0
[unused1213]	0
[unused1214]	0
[unused1215]	0
[unused1216]	0
[unused1217]	0
[unused1218]	0
[unused1219]	0
[unused1220]	0
[unused1221]	0
[unused1222]	0
[unused1223]	0
[unused1224]	0
[unused1225]	0
[unused1226]	0
[unused1227]	0
[unused1228]	0
[unused1229]	0
[unused1230]	0
[unused1231]	0
[unused1232]	0
[unused1233]	0
[unused1234]	0
[unused1235]	0
[unused1236]	0
[unused1237]	0
[unused1238]	0
[unused1239]	0
[unused1240]	0
[unused1241]	0
[unused1242]	0
[unused1243]	0
[unused1244]	0
[unused1245]	0
[unused1246]	0
[unused1247]	0
[unused1248]	0
[unused1249]	0
[unused1250]	0
[unused1251]	0
[unused1252]	0
[unused1253]	0
[unused1254]	0
[unused1255]	0
[unused1256]	0
[unused1257]	0
[unused1258]	0
[unused1259]	0
[unused1260]	0
[unused1261]	0
[unused1262]	0
[unused1263]	0
[unused1264]	0
[unused1265]	0
[unused1266]	0
[unused1267]	0
[unused1268]	0
[unused1269]	0
[unused1270]	0
[unused1271]	0
[unused1272]	0
[unused1273]	0
[unused1274]	0
[unused1275]	0
[unused1276]	0
[unused1277]	0
[unused1278]	0
[unused1279]	0
[unused1280]	0
[unused1281]	0
[unused1282]	0
[unused1283]	0
[unused1284]	0
[unused1285]	0
[unused1286]	0
[unused1287]	0
[unused1288]	0
[unused1289]	0
[unused1290]	0
[unused1291]	0
[unused1292]	0
[unused1293]	0
[unused1294]	0
[unused1295]	0
[unused1296]	0
[unused1297]	0
[unused1298]	0
[unused1299]	0
[unused1300]	0
[unused1301]	0
[unused1302]	0
[unused1303]	0
[unused1304]	0
[unused1305]	0
[unused1306]	0
[unused1307]	0
[unused1308]	0
[unused1309]	0
[unused1310]	0
[unused1311]	0
[unused1312]	0
[unused1313]	0
[unused1314]	0
[unused1315]	0
[unused1316]	0
[unused1317]	0
[unused1318]	0
[unused1319]	0
[unused1320]	0
[unused1321]	0
[unused1322]	0
[unused1323]	0
[unused1324]	0
[unused1325]	0
[unused1326]	0
[unused1327]	0
[unused1328]	0
[unused1329]	0
[unused1330]	0
[unused1331]	0
[unused1332]	0
[unused1333]	0
[unused1334]	0
[unused1335]	0
[unused1336]	0
[unused1337]	0
[unused1338]	0
[unused1339]	0
[unused1340]	0
[unused1341]	0
[unused1342]	0
[unused1343]	0
[unused1344]	0
[unused1345]	0
[unused1346]	0
[unused1347]	0
[unused1348]	0
[unused1349]	0
[unused1350]	0
[unused1351]	0
[unused1352]	0
[unused1353]	0
[unused1354]	0
[unused1355]	0
[unused1356]	0
[unused1357]	0
[unused1358]	0
[unused1359]	0
[unused1360]	0
[unused1361]	0
[unused1362]	0
[unused1363]	0
[unused1364]	0
[unused1365]	0
[unused1366]	0
[unused1367]	0
[unused1368]	0
[unused1369]	0
[unused1370]	0
[unused1371]	0
[unused1372]	0
[unused1373]	0
[unused1374]	0
[unused1375]	0
[unused1376]	0
[unused1377]	0
[unused1378]	0
[unused1379]	0
[unused1380]	0
[unused1381]	0
[unused1382]	0
[unused1383]	0
[unused1384]	0
[unused1385]	0
[unused1386]	0
[unused1387]	0
[unused1388]	0
[unused1389]	0
[unused1390]	0
[unused1391]	0
[unused1392]	0
[unused1393]	0
[unused1394]	0
[unused1395]	0
[unused1396]	0
[unused1397]	0
[unused1398]	0
[unused1399]	0
[unused1400]	0
[unused1401]	0
[unused1402]	0
[unused1403]	0
[unused1404]	0
[unused1405]	0
[unused1406]	0
[unused1407]	0
[unused1408]	0
[unused1409]	0
[unused1410]	0
[unused1411]	0
[unused1412]	0
[unused1413]	0
[unused1414]	0
[unused1415]	0
[unused1416]	0
[unused1417]	0
[unused1418]	0
[unused1419]	0
[unused1420]	0
[unused1421]	0
[unused1422]	0
[unused1423]	0
[unused1424]	0
[unused1425]	0
[unused1426]	0
[unused1427]	0
[unused1428]	0
[unused1429]	0
[unused1430]	0
[unused1431]	0
[unused1432]	0
[unused1433]	0
[unused1434]	0
[unused1435]	0
[unused1436]	0
[unused1437]	0
[unused1438]	0
[unused1439]	0
[unused1440]	0
[unused1441]	0
[unused1442]	0
[unused1443]	0
[unused1444]	0
[unused1445]	0
[unused1446]	0
[unused1447]	0
[unused1448]	0
[unused1449]	0
[unused1450]	0
[unused1451]	0
[unused1452]	0
[unused1453]	0
[unused1454]	0
[unused1455]	0
[unused1456]	0
[unused1457]	0
[unused1458]	0
[unused1459]	0
[unused1460]	0
[unused1461]	0
[unused1462]	0
[unused1463]	0
[unused1464]	0
[unused1465]	0
[unused1466]	0
[unused1467]	0
[unused1468]	0
[unused1469]	0
[unused1470]	0
[unused1471]	0
[unused1472]	0
[unused1473]	0
[unused1474]	0
[unused1475]	0
[unused1476]	0
[unused1477]	0
[unused1478]	0
[unused1479]	0
[unused1480]	0
[unused1481]	0
[unused1482]	0
[unused1483]	0
[unused1484]	0
[unused1485]	0
[unused1486]	0
[unused1487]	0
[unused1488]	0
[unused1489]	0
[unused1490]	0
[unused1491]	0
[unused1492]	0
[unused1493]	0
[unused1494]	0
[unused1495]	0
[unused1496]	0
[unused1497]	0
[unused1498]	0
[unused1499]	0
[unused1500]	0
[unused1501]	0
[unused1502]	0
[unused1503]	0
[unused1504]	0
[unused1505]	0
[unused1506]	0
[unused1507]	0
[unused1508]	0
[unused1509]	0
[unused1510]	0
[unused1511]	0
[unused1512]	0
[unused1513]	0
[unused1514]	0
[unused1515]	0
[unused1516]	0
[unused1517]	0
[unused1518]	0
[unused1519]	0
[unused1520]	0
[unused1521]	0
[unused1522]	0
[unused1523]	0
[unused1524]	0
[unused1525]	0
[unused1526]	0
[unused1527]	0
[unused1528]	0
[unused1529]	0
[unused1530]	0
[unused1531]	0
[unused1532]	0
[unused1533]	0
[unused1534]	0
[unused1535]	0
[unused1536]	0
[unused1537]	0
[unused1538]	0
[unused1539]	0
[unused1540]	0
[unused1541]	0
[unused1542]	0
[unused1543]	0
[unused1544]	0
[unused1545]	0
[unused1546]	0
[unused1547]	0
[unused1548]	0
[unused1549]	0
[unused1550]	0
[unused1551]	0
[unused1552]	0
[unused1553]	0
[unused1554]	0
[unused1555]	0
[unused1556]	0
[unused1557]	0
[unused1558]	0
[unused1559]	0
[unused1560]	0
[unused1561]	0
[unused1562]	0
[unused1563]	0
[unused1564]	0
[unused1565]	0
[unused1566]	0
[unused1567]	0
[unused1568]	0
[unused1569]	0
[unused1570]	0
[unused1571]	0
[unused1572]	0
[unused1573]	0
[unused1574]	0
[unused1575]	0
[unused1576]	0
[unused1577]	0
[unused1578]	0
[unused1579]	0
[unused1580]	0
[unused1581]	0
[unused1582]	0
[unused1583]	0
[unused1584]	0
[unused1585]	0
[unused1586]	0
[unused1587]	0
[unused1588]	0
[unused1589]	0
[unused1590]	0
[unused1591]	0
[unused1592]	0
[unused1593]	0
[unused1594]	0
[unused1595]	0
[unused1596]	0
[unused1597]	0
[unused1598]	0
[unused1599]	0
[unused1600]	0
[unused1601]	0
[unused1602]	0
[unused1603]	0
[unused1604]	0
[unused1605]	0
[unused1606]	0
[unused1607]	0
[unused1608]	0
[unused1609]	0
[unused1610]	0
[unused1611]	0
[unused1612]	0
[unused1613]	0
[unused1614]	0
[unused1615]	0
[unused1616]	0
[unused1617]	0
[unused1618]	0
[unused1619]	0
[unused1620]	0
[unused1621]	0
[unused1622]	0
[unused1623]	0
[unused1624]	0
[unused1625]	0
[unused1626]	0
[unused1627]	0
[unused1628]	0
[unused1629]	0
[unused1630]	0
[unused1631]	0
[unused1632]	0
[unused1633]	0
[unused1634]	0
[unused1635]	0
[unused1636]	0
[unused1637]	0
[unused1638]	0
[unused1639]	0
[unused1640]	0
[unused1641]	0
[unused1642]	0
[unused1643]	0
[unused1644]	0
[unused1645]	0
[unused1646]	0
[unused1647]	0
[unused1648]	0
[unused1649]	0
[unused1650]	0
[unused1651]	0
[unused1652]	0
[unused1653]	0
[unused1654]	0
[unused1655]	0
[unused1656]	0
[unused1657]	0
[unused1658]	0
[unused1659]	0
[unused1660]	0
[unused1661]	0
[unused1662]	0
[unused1663]	0
[unused1664]	0
[unused1665]	0
[unused1666]	0
[unused1667]	0
[unused1668]	0
[unused1669]	0
[unused1670]	0
[unused1671]	0
[unused1672]	0
[unused1673]	0
[unused1674]	0
[unused1675]	0
[unused1676]	0
[unused1677]	0
[unused1678]	0
[unused1679]	0
[unused1680]	0
[unused1681]	0
[unused1682]	0
[unused1683]	0
[unused1684]	0
[unused1685]	0
[unused1686]	0
[unused1687]	0
[unused1688]	0
[unused1689]	0
[unused1690]	0
[unused1691]	0
[unused1692]	0
[unused1693]	0
[unused1694]	0
[unused1695]	0
[unused1696]	0
[unused1697]	0
[unused1698]	0
[unused1699]	0
[unused1700]	0
[unused1701]	0
[unused1702]	0
[unused1703]	0
[unused1704]	0
[unused1705]	0
[unused1706]	0
[unused1707]	0
[unused1708]	0
[unused1709]	0
[unused1710]	0
[unused1711]	0
[unused1712]	0
[unused1713]	0
[unused1714]	0
[unused1715]	0
[unused1716]	0
[unused1717]	0
[unused1718]	0
[unused1719]	0
[unused1720]	0
[unused1721]	0
[unused1722]	0
[unused1723]	0
[unused1724]	0
[unused1725]	0
[unused1726]	0
[unused1727]	0
[unused1728]	0
[unused1729]	0
[unused1730]	0
[unused1731]	0
[unused1732]	0
[unused1733]	0
[unused1734]	0
[unused1735]	0
[unused1736]	0
[unused1737]	0
[unused1738]	0
[unused1739]	0
[unused1740]	0
[unused1741]	0
[unused1742]	0
[unused1743]	0
[unused1744]	0
[unused1745]	0
[unused1746]	0
[unused1747]	0
[unused1748]	0
[unused1749]	0
[unused1750]	0
[unused1751]	0
[unused1752]	0
[unused1753]	0
[unused1754]	0
[unused1755]	0
[unused1756]	0
[unused1757]	0
[unused1758]	0
[unused1759]	0
[unused1760]	0
[unused1761]	0
[unused1762]	0
[unused1763]	0
[unused1764]	0
[unused1765]	0
[unused1766]	0
[unused1767]	0
[unused1768]	0
[unused1769]	0
[unused1770]	0
[unused1771]	0
[unused1772]	0
[unused1773]	0
[unused1774]	0
[unused1775]	0
[unused1776]	0
[unused1777]	0
[unused1778]	0
[unused1779]	0
[unused1780]	0
[unused1781]	0
[unused1782]	0
[unused1783]	0
[unused1784]	0
[unused1785]	0
[unused1786]	0
[unused1787]	0
[unused1788]	0
[unused1789]	0
[unused1790]	0
[unused1791]	0
[unused1792]	0
[unused1793]	0
[unused1794]	0
[unused1795]	0
[unused1796]	0
[unused1797]	0
[unused1798]	0
[unused1799]	0
[unused1800]	0
[unused1801]	0
[unused1802]	0
[unused1803]	0
[unused1804]	0
[unused1805]	0
[unused1806]	0
[unused1807]	0
[unused1808]	0
[unused1809]	0
[unused1810]	0
[unused1811]	0
[unused1812]	0
[unused1813]	0
[unused1814]	0
[unused1815]	0
[unused1816]	0
[unused1817]	0
[unused1818]	0
[unused1819]	0
[unused1820]	0
[unused1821]	0
[unused1822]	0
[unused1823]	0
[unused1824]	0
[unused1825]	0
[unused1826]	0
[unused1827]	0
[unused1828]	0
[unused1829]	0
[unused1830]	0
[unused1831]	0
[unused1832]	0
[unused1833]	0
[unused1834]	0
[unused1835]	0
[unused1836]	0
[unused1837]	0
[unused1838]	0
[unused1839]	0
[unused1840]	0
[unused1841]	0
[unused1842]	0
[unused1843]	0
[unused1844]	0
[unused1845]	0
[unused1846]	0
[unused1847]	0
[unused1848]	0
[unused1849]	0
[unused1850]	0
[unused1851]	0
[unused1852]	0
[unused1853]	0
[unused1854]	0
[unused1855]	0
[unused1856]	0
[unused1857]	0
[unused1858]	0
[unused1859]	0
[unused1860]	0
[unused1861]	0
[unused1862]	0
[unused1863]	0
[unused1864]	0
[unused1865]	0
[unused1866]	0
[unused1867]	0
[unused1868]	0
[unused1869]	0
[unused1870]	0
[unused1871]	0
[unused1872]	0
[unused1873]	0
[unused1874]	0
[unused1875]	0
[unused1876]	0
[unused1877]	0
[unused1878]	0
[unused1879]	0
[unused1880]	0
[unused1881]	0
[unused1882]	0
[unused1883]	0
[unused1884]	0
[unused1885]	0
[unused1886]	0
[unused1887]	0
[unused1888]	0
[unused1889]	0
[unused1890]	0
[unused1891]	0
[unused1892]	0
[unused1893]	0
[unused1894]	0
[unused1895]	0
[unused1896]	0
[unused1897]	0
[unused1898]	0
[unused1899]	0
[unused1900]	0
[unused1901]	0
[unused1902]	0
[unused1903]	0
[unused1904]	0
[unused1905]	0
[unused1906]	0
[unused1907]	0
[unused1908]	0
[unused1909]	0
[unused1910]	0
[unused1911]	0
[unused1912]	0
[unused1913]	0
[unused1914]	0
[unused1915]	0
[unused1916]	0
[unused1917]	0
[unused1918]	0
[unused1919]	0
[unused1920]	0
[unused1921]	0
[unused1922]	0
[unused1923]	0
[unused1924]	0
[unused1925]	0
[unused1926]	0
[unused1927]	0
[unused1928]	0
[unused1929]	0
[unused1930]	0
[unused1931]	0
[unused1932]	0
[unused1933]	0
[unused1934]	0
[unused1935]	0
[unused1936]	0
[unused1937]	0
[unused1938]	0
[unused1939]	0
[unused1940]	0
[unused1941]	0
[unused1942]	0
[unused1943]	0
[unused1944]	0
[unused1945]	0
[unused1946]	0
[unused1947]	0
[unused1948]	0
[unused1949]	0
[unused1950]	0
[unused1951]	0
[unused1952]	0
[unused1953]	0
[unused1954]	0
[unused1955]	0
[unused1956]	0
[unused1957]	0
[unused1958]	0
[unused1959]	0
[unused1960]	0
[unused1961]	0
[unused1962]	0
[unused1963]	0
[unused1964]	0
[unused1965]	0
[unused1966]	0
[unused1967]	0
[unused1968]	0
[unused1969]	0
[unused1970]	0
[unused1971]	0
[unused1972]	0
[unused1973]	0
[unused1974]	0
[unused1975]	0
[unused1976]	0
[unused1977]	0
[unused1978]	0
[unused1979]	0
[unused1980]	0
[unused1981]	0
[unused1982]	0
[unused1983]	0
[unused1984]	0
[unused1985]	0
[unused1986]	0
[unused1987]	0
[unused1988]	0
[unused1989]	0
[unused1990]	0
[unused1991]	0
[unused1992]	0
[unused1993]	0
[unused1994]	0
[unused1995]	0
[unused1996]	0
[unused1997]	0
[unused1998]	0
[unused1999]	0
▁이	-0
▁그	-1
▁있	-2
으로	-3
▁대	-4
했다	-5
▁사	-6
▁수	-7
▁지	-8
▁것	-9
에서	-10
▁아	-11
▁가	-12
▁하	-13
▁기	-14
▁1	-15
▁한	-16
▁전	-17
▁나	-18
▁시	-19
▁2	-20
▁보	-21
▁정	-22
었다	-23
▁자	-24
▁다	-25
니다	-26
▁말	-27
▁등	-28
▁내	-29
▁제	-30
▁주	-31
▁있다	-32
▁고	-33
▁일	-34
하는	-35
이다	-36
하고	-37
▁어	-38
▁부	-39
▁위	-40
▁중	-41
▁상	-42
▁인	-43
▁없	-44
▁않	-45
▁모	-46
▁공	-47
▁경	-48
▁마	-49
▁소	-50
▁오	-51
▁해	-52
▁조	-53
▁있는	-54
▁여	-55
▁관	-56
▁의	-57
▁국	-58
▁미	-59
▁안	-60
▁바	-61
지만	-62
▁비	-63
▁신	-64
▁3	-65
▁유	-66
▁무	-67
▁서	-68
▁생	-69
▁개	-70
▁거	-71
▁우	-72
▁도	-73
▁구	-74
▁선	-75
다고	-76
▁만	-77
습니다	-78
에게	-79
▁때	-80
▁연	-81
라고	-82
▁문	-83
▁들	-84
▁최	-85
▁발	-86
▁방	-87
▁통	-88
00	-89
▁동	-90
까지	-91
▁진	-92
▁예	-93
다는	-94
▁강	-95
면서	-96
들이	-97
▁현	-98
▁세	-99
▁.	-100
▁것이	-101
▁당	-102
▁불	-103
▁5	-104
▁알	-105
▁성	-106
▁되	-107
▁확	-108
았다	-109
▁입	-110
하게	-111
▁더	-112
▁실	-113
▁분	-114
▁장	-115
▁4	-116
▁계	-117
▁저	-118
▁20	-119
▁따	-120
▁할	-121
▁같	-122
에는	-123
▁재	-124
▁남	-125
▁사람	-126
한다	-127
▁받	-128
▁노	-129
▁반	-130
▁결	-131
▁원	-132
▁추	-133
▁영	-134
▁지난	-135
부터	-136
▁차	-137
▁후	-138
▁단	-139
▁스	-140
▁물	-141
▁매	-142
▁적	-143
▁교	-144
▁올	-145
▁김	-146
▁또	-147
리고	-148
적인	-149
▁말했다	-150
▁두	-151
▁아니	-152
적으로	-153
▁것으로	-154
라는	-155
▁감	-156
▁특	-157
▁생각	-158
▁건	-159
▁대한	-160
▁요	-161
▁눈	-162
▁있었다	-163
들은	-164
▁못	-165
▁6	-166
▁위해	-167
▁설	-168
▁그러	-169
였다	-170
▁밝	-171
▁달	-172
하기	-173
▁열	-174
▁회	-175
▁피	-176
▁목	-177
리는	-178
▁앞	-179
▁손	-180
▁참	-181
된다	-182
▁많	-183
▁했다	-184
▁금	-185
▁과	-186
▁평	-187
▁출	-188
▁청	-189
들의	-190
▁얼	-191
▁검	-192
▁때문	-193
▁북	-194
▁작	-195
▁201	-196
▁자신	-197
는데	-198
▁돌	-199
▁행	-200
▁들어	-201
▁통해	-202
▁배	-203
하지	-204
▁집	-205
▁포	-206
▁한국	-207
▁함	-208
▁역	-209
▁7	-210
▁운	-211
▁외	-212
혔다	-213
▁가능	-214
▁우리	-215
▁것이다	-216
▁살	-217
▁직	-218
▁좋	-219
▁명	-220
리를	-221
자는	-222
▁8	-223
▁네	-224
▁증	-225
▁투	-226
▁파	-227
▁밝혔다	-228
▁양	-229
▁뒤	-230
▁하는	-231
▁대해	-232
▁그런	-233
됐다	-234
대로	-235
▁새	-236
▁이번	-237
▁필	-238
▁약	-239
통령	-240
▁화	-241
▁그는	-242
기를	-243
▁10	-244
도록	-245
▁그렇	-246
▁및	-247
▁간	-248
▁점	-249
▁에	-250
장은	-251
▁대통령	-252
▁걸	-253
▁산	-254
▁것은	-255
▁처	-256
▁드	-257
▁높	-258
▁판	-259
▁9	-260
▁너	-261
▁맞	-262
▁학	-263
으며	-264
▁게	-265
이었다	-266
▁본	-267
▁함께	-268
▁서울	-269
▁이상	-270
▁변	-271
지는	-272
▁속	-273
▁정부	-274
▁데	-275
들을	-276
▁미국	-277
▁하고	-278
▁심	-279
▁잘	-280
▁총	-281
에도	-282
▁같은	-283
▁활	-284
▁진행	-285
▁누	-286
▁경우	-287
▁박	-288
렸다	-289
▁그리고	-290
니까	-291
▁초	-292
졌다	-293
▁다시	-294
▁채	-295
▁것을	-296
▁나는	-297
▁임	-298
▁하지만	-299
▁지금	-300
▁카	-301
▁시작	-302
▁프	-303
▁순	-304
사를	-305
▁관련	-306
▁민	-307
▁이어	-308
이나	-309
장을	-310
▁관계	-311
▁날	-312
▁치	-313
보다	-314
▁업	-315
▁호	-316
▁그녀	-317
▁표	-318
하다	-319
▁따라	-320
▁법	-321
▁협	-322
입니다	-323
▁아이	-324
▁지원	-325
▁크	-326
▁한다	-327
이라	-328
에서는	-329
▁확인	-330
▁사업	-331
리가	-332
▁문제	-333
▁몸	-334
▁로	-335
▁다른	-336
▁체	-337
▁합	-338
되는	-339
▁지역	-340
▁했	-341
▁종	-342
▁삼	-343
▁필요	-344
000	-345
▁번	-346
▁등을	-347
▁각	-348
▁환	-349
▁하나	-350
▁있어	-351
▁대표	-352
하며	-353
▁위한	-354
위원	-355
▁고객	-356
▁느	-357
▁없는	-358
▁줄	-359
▁중국	-360
▁라	-361
서는	-362
▁규	-363
처럼	-364
▁사용	-365
▁취	-366
▁얼굴	-367
▁창	-368
▁있었	-369
▁내가	-370
하면	-371
장이	-372
▁근	-373
▁온	-374
▁잠	-375
▁언	-376
▁모두	-377
▁향	-378
▁리	-379
▁찾	-380
▁힘	-381
자가	-382
▁난	-383
▁북한	-384
▁현재	-385
▁때문에	-386
▁죽	-387
▁그래	-388
왔다	-389
▁머	-390
▁그러나	-391
▁담	-392
▁충	-393
▁허	-394
▁음	-395
▁완	-396
억원	-397
▁형	-398
비스	-399
▁듯	-400
지를	-401
해야	-402
▁군	-403
▁타	-404
▁정도	-405
▁은	-406
▁t	-407
이는	-408
▁기업	-409
지고	-410
기가	-411
▁S	-412
▁태	-413
▁그의	-414
▁광	-415
▁천	-416
▁버	-417
▁12	-418
▁싶	-419
이고	-420
▁가장	-421
▁그것	-422
▁준	-423
기에	-424
▁큰	-425
▁편	-426
하여	-427
▁예정	-428
▁사실	-429
▁아무	-430
▁절	-431
▁않는	-432
정을	-433
▁될	-434
▁A	-435
▁있을	-436
▁넘	-437
성을	-438
▁곳	-439
▁계획	-440
▁웃	-441
▁시간	-442
▁이후	-443
▁19	-444
력을	-445
이라고	-446
▁보고	-447
▁글	-448
▁만들	-449
▁이런	-450
▁상황	-451
▁늘	-452
▁이용	-453
▁올해	-454
▁11	-455
성이	-456
▁식	-457
▁트	-458
▁설명	-459
▁코	-460
▁최근	-461
▁질	-462
만원	-463
▁을	-464
▁복	-465
▁모습	-466
▁국내	-467
합니다	-468
▁이날	-469
기도	-470
▁애	-471
▁잡	-472
▁벌	-473
▁떨	-474
▁돌아	-475
해서	-476
▁투자	-477
사는	-478
가는	-479
▁지난해	-480
he	-481
▁운영	-482
▁마음	-483
▁용	-484
▁쓰	-485
으면	-486
▁며	-487
▁제공	-488
원은	-489
▁국민	-490
사가	-491
기업	-492
▁말을	-493
화를	-494
▁끝	-495
하겠	-496
▁논	-497
▁바로	-498
▁있다고	-499
▁있습니다	-500
기는	-501
▁독	-502
▁는	-503
▁빠	-504
▁그렇게	-505
▁접	-506
하면서	-507
레이	-508
▁뭐	-509
▁백	-510
▁세계	-511
▁떠	-512
▁친	-513
▁없었다	-514
개를	-515
이지	-516
▁없다	-517
▁병	-518
▁모든	-519
▁a	-520
▁않았다	-521
▁나타	-522
들에게	-523
되고	-524
▁권	-525
▁30	-526
▁많은	-527
회의	-528
▁사이	-529
▁왜	-530
▁월	-531
거나	-532
▁다양	-533
▁교육	-534
르면	-535
▁구매	-536
▁자신의	-537
▁책	-538
▁메	-539
▁시장	-540
▁토	-541
▁길	-542
▁b	-543
렇게	-544
▁어떻	-545
▁농	-546
▁아니라	-547
▁특히	-548
자의	-549
▁막	-550
▁항	-551
▁대상	-552
인이	-553
사업	-554
갔다	-555
▁커	-556
어나	-557
센터	-558
▁T	-559
▁먹	-560
▁사회	-561
▁연구	-562
라도	-563
▁않고	-564
▁기술	-565
▁결과	-566
▁경제	-567
녀석	-568
▁갖	-569
▁바라	-570
▁이미	-571
▁전문	-572
▁승	-573
▁폭	-574
▁브	-575
부는	-576
▁15	-577
했다고	-578
▁관계자는	-579
▁갈	-580
▁야	-581
로운	-582
▁된	-583
시간	-584
▁몰	-585
▁어떻게	-586
상을	-587
자를	-588
▁있다는	-589
▁프로	-590
▁추진	-591
▁철	-592
▁디	-593
▁모르	-594
▁서비스	-595
▁다음	-596
▁이제	-597
지도	-598
▁별	-599
▁않은	-600
▁놀	-601
▁I	-602
▁계속	-603
▁개발	-604
▁다양한	-605
시는	-606
▁울	-607
▁국가	-608
원이	-609
▁따르면	-610
시아	-611
▁귀	-612
▁처음	-613
▁요금	-614
▁않았	-615
▁L	-616
났다	-617
▁선택	-618
▁0	-619
▁아직	-620
▁내용	-621
▁어떤	-622
▁발생	-623
▁테	-624
▁후보	-625
▁녀석	-626
리에	-627
스트	-628
▁베	-629
▁있도록	-630
▁볼	-631
▁삼성	-632
▁확대	-633
▁홍	-634
▁된다	-635
▁것이라고	-636
▁를	-637
▁침	-638
▁금융	-639
▁기대	-640
▁황	-641
▁C	-642
▁너무	-643
▁제품	-644
▁놓	-645
사의	-646
▁경찰	-647
▁일본	-648
위원회	-649
▁와	-650
겠습니다	-651
▁급	-652
▁발표	-653
▁역시	-654
▁오늘	-655
개월	-656
▁뿐	-657
▁증가	-658
▁고개를	-659
의를	-660
▁면	-661
▁없이	-662
운데	-663
▁이렇게	-664
▁피해	-665
라며	-666
이라는	-667
▁여러	-668
▁당신	-669
다가	-670
다면	-671
▁추가	-672
이었	-673
▁K	-674
▁측	-675
인은	-676
기로	-677
▁s	-678
▁정보	-679
없이	-680
▁정말	-681
▁참여	-682
▁마련	-683
▁판매	-684
▁좀	-685
▁신청	-686
▁효	-687
▁이유	-688
▁핵	-689
▁하지	-690
▁휴	-691
▁이를	-692
▁포함	-693
스는	-694
▁조금	-695
▁떨어	-696
▁낮	-697
어서	-698
▁동안	-699
▁받아	-700
▁최대	-701
▁목소	-702
▁산업	-703
랜드	-704
▁강조	-705
▁정책	-706
▁c	-707
▁아닌	-708
안을	-709
오는	-710
▁부산	-711
▁말이	-712
씨는	-713
들과	-714
▁앞으로	-715
▁해당	-716
치를	-717
도를	-718
려고	-719
▁이야	-720
▁엄	-721
▁가운데	-722
▁갑	-723
▁기존	-724
으나	-725
▁25	-726
▁알려	-727
에서도	-728
▁안전	-729
▁키	-730
in	-731
어요	-732
▁오는	-733
▁희	-734
▁기준	-735
한다고	-736
▁몇	-737
▁분석	-738
가지	-739
▁찾아	-740
▁직접	-741
▁물론	-742
▁레	-743
원을	-744
▁둘	-745
▁조사	-746
▁예상	-747
▁방문	-748
▁적용	-749
음을	-750
했던	-751
명을	-752
▁무슨	-753
▁존	-754
▁전망	-755
▁일이	-756
식을	-757
▁13	-758
▁어려	-759
▁수준	-760
▁움	-761
▁팔	-762
▁고객님	-763
▁등의	-764
▁응	-765
▁예정이다	-766
명이	-767
▁알고	-768
▁200	-769
밖에	-770
▁이라고	-771
▁상태	-772
▁또한	-773
▁24	-774
리아	-775
▁바라보	-776
▁이에	-777
인가	-778
▁패	-779
마트	-780
▁18	-781
▁축	-782
제로	-783
장의	-784
▁기록	-785
▁최고	-786
▁평가	-787
▁많이	-788
▁왕	-789
▁강화	-790
위를	-791
▁일부	-792
er	-793
▁등이	-794
▁되는	-795
인다	-796
▁규모	-797
이터	-798
▁그럼	-799
▁혼	-800
▁사랑	-801
▁지적	-802
됩니다	-803
▁기다	-804
▁내려	-805
▁수도	-806
▁숨	-807
되어	-808
립니다	-809
시에	-810
▁깨	-811
▁한편	-812
▁더욱	-813
정이	-814
▁어느	-815
선을	-816
▁있던	-817
▁오후	-818
있는	-819
▁먼	-820
인의	-821
▁정상	-822
인을	-823
세요	-824
▁현대	-825
드는	-826
▁당시	-827
▁몸을	-828
▁인간	-829
▁좋은	-830
회를	-831
지가	-832
이며	-833
▁것도	-834
전히	-835
▁풀	-836
▁중요	-837
▁준비	-838
▁그가	-839
▁폐	-840
▁이름	-841
동을	-842
▁혐	-843
이가	-844
지원	-845
▁설명했다	-846
▁범	-847
▁B	-848
겠다	-849
▁앉	-850
▁사람이	-851
▁w	-852
▁밀	-853
▁지방	-854
도로	-855
학교	-856
르는	-857
▁지속	-858
시장	-859
▁악	-860
▁터	-861
▁않을	-862
▁사건	-863
▁블	-864
▁결정	-865
력이	-866
이트	-867
해주	-868
머니	-869
동안	-870
▁긴	-871
▁어디	-872
했습니다	-873
▁만큼	-874
▁새로운	-875
수는	-876
▁유지	-877
▁페	-878
▁얼마	-879
주의	-880
수가	-881
▁학생	-882
더니	-883
▁활용	-884
▁100	-885
▁첫	-886
▁빨	-887
제를	-888
▁높은	-889
▁소리	-890
는지	-891
은행	-892
는다	-893
▁목표	-894
▁손을	-895
거리	-896
▁14	-897
▁순간	-898
▁놈	-899
▁상승	-900
▁문화	-901
▁가격	-902
▁전국	-903
했고	-904
▁16	-905
▁플	-906
▁육	-907
▁구성	-908
▁지나	-909
▁정치	-910
▁제가	-911
기관	-912
▁끌	-913
▁전체	-914
▁그런데	-915
쳤다	-916
▁50	-917
▁중심	-918
re	-919
원의	-920
▁개선	-921
럼프	-922
▁국제	-923
▁자유	-924
인지	-925
▁the	-926
▁흐	-927
▁뛰	-928
▁여성	-929
▁트럼프	-930
▁있고	-931
▁뜻	-932
수를	-933
▁검찰	-934
드리	-935
▁요구	-936
▁주요	-937
소를	-938
▁해외	-939
세를	-940
▁주장	-941
▁않아	-942
그램	-943
▁기간	-944
▁계획이다	-945
▁관심	-946
▁말씀	-947
▁열린	-948
▁부탁	-949
산업	-950
▁송	-951
▁의미	-952
▁상품	-953
▁눈을	-954
인데	-955
▁부분	-956
대를	-957
가가	-958
명의	-959
▁크게	-960
스를	-961
▁방법	-962
되지	-963
▁장관	-964
금을	-965
▁시작했다	-966
▁알아	-967
치는	-968
▁누구	-969
▁때문이다	-970
▁영향	-971
▁잔	-972
▁여기	-973
스템	-974
▁만들어	-975
▁즐	-976
나요	-977
▁소비	-978
혁신	-979
시면	-980
▁위원	-981
▁공동	-982
▁오전	-983
▁거래	-984
▁싸	-985
교육	-986
시키	-987
▁시민	-988
▁혹	-989
▁성장	-990
▁자동	-991
▁골	-992
으니	-993
▁곧	-994
▁생산	-995
▁남북	-996
▁움직	-997
▁분야	-998
▁학교	-999
▁환경	-1000
▁나를	-1001
주당	-1002
▁무엇	-1003
이를	-1004
▁루	-1005
▁강조했다	-1006
▁국회	-1007
나는	-1008
▁17	-1009
문을	-1010
도가	-1011
▁o	-1012
▁흘	-1013
까요	-1014
▁개통	-1015
▁좋아	-1016
▁그녀는	-1017
라인	-1018
▁돈	-1019
사에	-1020
냈다	-1021
주는	-1022
▁옆	-1023
▁정신	-1024
▁듣	-1025
▁잠시	-1026
▁대답	-1027
회담	-1028
▁되어	-1029
일부터	-1030
▁등에	-1031
▁도시	-1032
▁씨	-1033
▁붙	-1034
지역	-1035
▁글로	-1036
▁할부	-1037
일까지	-1038
▁M	-1039
가를	-1040
▁같이	-1041
가요	-1042
▁대학	-1043
▁업무	-1044
▁공개	-1045
▁그래서	-1046
물을	-1047
▁품	-1048
▁도움	-1049
▁가족	-1050
▁답	-1051
자기	-1052
한다는	-1053
보고	-1054
▁수가	-1055
▁의견	-1056
▁대통령은	-1057
▁언제	-1058
▁먼저	-1059
▁특별	-1060
려는	-1061
▁자기	-1062
▁어린	-1063
▁한다고	-1064
연구	-1065
▁풍	-1066
정은	-1067
었던	-1068
▁클	-1069
▁23	-1070
▁판단	-1071
▁자리	-1072
▁겨	-1073
▁극	-1074
▁뉴	-1075
▁안내	-1076
▁그대로	-1077
▁스마트	-1078
▁청와	-1079
▁쪽	-1080
▁일반	-1081
▁경쟁	-1082
▁이해	-1083
▁앞서	-1084
▁없어	-1085
▁흔	-1086
▁얻	-1087
▁참석	-1088
▁주민	-1089
▁탄	-1090
▁받고	-1091
▁할인	-1092
▁라고	-1093
정보	-1094
시설	-1095
▁적극	-1096
진다	-1097
▁생활	-1098
▁글로벌	-1099
▁비롯	-1100
재인	-1101
▁상대	-1102
▁제시	-1103
자로	-1104
▁얘	-1105
▁밤	-1106
이스	-1107
▁만나	-1108
▁올라	-1109
▁나오	-1110
▁가지	-1111
랐다	-1112
▁내년	-1113
부가	-1114
▁청와대	-1115
▁헤	-1116
▁나가	-1117
▁미래	-1118
▁이뤄	-1119
들도	-1120
▁요금제	-1121
▁건강	-1122
▁출시	-1123
러운	-1124
▁다만	-1125
▁SK	-1126
▁믿	-1127
▁또는	-1128
▁맡	-1129
▁개최	-1130
▁관리	-1131
기술	-1132
장에	-1133
▁노동	-1134
▁나온	-1135
▁빛	-1136
▁아버	-1137
전을	-1138
▁단말	-1139
▁브랜드	-1140
▁보여	-1141
▁선정	-1142
부를	-1143
▁윤	-1144
하기로	-1145
▁G	-1146
▁쳐	-1147
▁해결	-1148
▁그녀의	-1149
점을	-1150
▁즉	-1151
▁암	-1152
▁D	-1153
▁보인다	-1154
▁성공	-1155
자리	-1156
▁과정	-1157
▁효과	-1158
▁상담	-1159
▁프로그램	-1160
파트	-1161
▁21	-1162
▁가까	-1163
▁쉽	-1164
▁한번	-1165
전에	-1166
▁문재인	-1167
▁확보	-1168
▁청년	-1169
부분	-1170
▁갑자기	-1171
▁압	-1172
스가	-1173
스럽	-1174
▁f	-1175
▁석	-1176
스로	-1177
▁드러	-1178
상이	-1179
장에서	-1180
계를	-1181
▁혐의	-1182
▁선거	-1183
▁우려	-1184
▁매출	-1185
▁머리	-1186
▁술	-1187
림픽	-1188
▁중소	-1189
▁바람	-1190
▁의원	-1191
장과	-1192
▁대비	-1193
▁얼굴을	-1194
▁해야	-1195
▁22	-1196
임을	-1197
▁우선	-1198
스의	-1199
▁숙	-1200
▁LG	-1201
▁인터	-1202
▁입을	-1203
▁부담	-1204
▁보내	-1205
롯데	-1206
▁깊	-1207
▁상당	-1208
▁h	-1209
사와	-1210
료를	-1211
▁러	-1212
▁마치	-1213
▁덧	-1214
▁P	-1215
▁고려	-1216
▁가입	-1217
▁존재	-1218
고는	-1219
겠다고	-1220
▁죄	-1221
▁활동	-1222
▁주문	-1223
▁불가	-1224
서를	-1225
감을	-1226
▁결국	-1227
▁설치	-1228
▁보면	-1229
잖아	-1230
▁여자	-1231
▁2018	-1232
이야	-1233
하다고	-1234
▁인정	-1235
▁대상으로	-1236
지요	-1237
문화	-1238
▁그를	-1239
▁거야	-1240
▁전했다	-1241
▁따른	-1242
댓글	-1243
▁가슴	-1244
▁27	-1245
▁d	-1246
고가	-1247
▁역할	-1248
▁이는	-1249
or	-1250
▁정도로	-1251
nd	-1252
▁롯데	-1253
▁작성	-1254
▁분명	-1255
▁감사	-1256
섰다	-1257
▁자신이	-1258
▁경영	-1259
▁논의	-1260
▁도입	-1261
▁시행	-1262
대표	-1263
▁벗	-1264
▁살아	-1265
▁퍼	-1266
마다	-1267
▁하루	-1268
했지만	-1269
리지	-1270
다보	-1271
드립니다	-1272
▁가지고	-1273
▁조성	-1274
▁친구	-1275
로는	-1276
▁협력	-1277
▁모습을	-1278
▁집중	-1279
▁가능한	-1280
▁꾸	-1281
▁짓	-1282
▁제한	-1283
▁휘	-1284
▁관광	-1285
원에	-1286
년간	-1287
▁기본	-1288
▁행정	-1289
군요	-1290
▁노력	-1291
관리	-1292
업체	-1293
▁혁신	-1294
▁업체	-1295
▁아니다	-1296
▁다가	-1297
▁나서	-1298
이오	-1299
▁향해	-1300
대의	-1301
▁개인	-1302
▁사람은	-1303
그룹	-1304
▁콘	-1305
▁이것	-1306
개발	-1307
▁돼	-1308
▁받은	-1309
▁그때	-1310
▁해도	-1311
투자	-1312
▁일을	-1313
▁외국	-1314
▁그리	-1315
▁케	-1316
▁자체	-1317
ed	-1318
르고	-1319
▁등으로	-1320
▁인사	-1321
▁묻	-1322
▁홈	-1323
▁40	-1324
▁넘어	-1325
▁사라	-1326
20	-1327
약정	-1328
인트	-1329
▁탈	-1330
▁아주	-1331
어난	-1332
▁26	-1333
▁이동	-1334
▁능	-1335
▁궁	-1336
▁위험	-1337
▁기기	-1338
▁대통령이	-1339
▁지난달	-1340
▁제주	-1341
▁경기	-1342
ou	-1343
권을	-1344
▁슬	-1345
▁차량	-1346
▁납	-1347
▁전에	-1348
▁전략	-1349
▁각각	-1350
▁선보	-1351
하자	-1352
▁매우	-1353
▁보였다	-1354
▁꿈	-1355
과의	-1356
▁28	-1357
하다는	-1358
▁견	-1359
들어	-1360
전자	-1361
▁땇	-1362
▁이곳	-1363
▁재판	-1364
도의	-1365
▁하면	-1366
▁망	-1367
▁영업	-1368
▁서로	-1369
사로	-1370
▁있으며	-1371
같은	-1372
▁거의	-1373
자인	-1374
▁옷	-1375
▁말에	-1376
▁착	-1377
증권	-1378
▁됐다	-1379
리로	-1380
▁사진	-1381
▁공급	-1382
▁공격	-1383
▁기분	-1384
대에	-1385
약을	-1386
자들이	-1387
르게	-1388
▁꺼	-1389
▁색	-1390
지막	-1391
단체	-1392
▁이러	-1393
▁엘	-1394
지에	-1395
▁그냥	-1396
▁기능	-1397
▁실시	-1398
▁우리는	-1399
▁구축	-1400
▁대응	-1401
▁2016	-1402
같이	-1403
▁있지만	-1404
▁있는데	-1405
▁모양	-1406
대가	-1407
▁격	-1408
▁기관	-1409
at	-1410
is	-1411
▁대표는	-1412
▁작은	-1413
▁E	-1414
▁니	-1415
었고	-1416
▁혜	-1417
▁펼	-1418
▁밖	-1419
▁덧붙	-1420
▁발견	-1421
▁변화	-1422
▁갤	-1423
▁공공	-1424
▁나의	-1425
위는	-1426
▁칼	-1427
▁고용	-1428
▁필요한	-1429
▁어렵	-1430
▁기억	-1431
▁인천	-1432
▁봉	-1433
▁걱	-1434
환경	-1435
원으로	-1436
트를	-1437
▁제기	-1438
▁한다는	-1439
▁그것은	-1440
▁건설	-1441
하던	-1442
▁뜨	-1443
이라도	-1444
▁대신	-1445
린다	-1446
▁대부분	-1447
지로	-1448
▁여행	-1449
물이	-1450
▁평화	-1451
▁자연	-1452
▁구조	-1453
▁수출	-1454
▁정부가	-1455
도는	-1456
▁m	-1457
▁전화	-1458
라면	-1459
▁신규	-1460
▁주변	-1461
▁방식	-1462
▁아래	-1463
▁봐	-1464
구나	-1465
▁아파트	-1466
하도록	-1467
▁가능성이	-1468
대한	-1469
▁아마	-1470
정으로	-1471
정한	-1472
▁2017	-1473
되면	-1474
대는	-1475
▁광주	-1476
▁수사	-1477
▁왔	-1478
리며	-1479
▁등록	-1480
▁동시에	-1481
정책	-1482
▁연결	-1483
▁중앙	-1484
었습니다	-1485
더라도	-1486
▁비교	-1487
▁시스템	-1488
▁모델	-1489
겠다는	-1490
10	-1491
▁캐	-1492
▁마법	-1493
부의	-1494
▁전혀	-1495
▁검토	-1496
on	-1497
▁그만	-1498
기간	-1499
▁2015	-1500
▁겁	-1501
지지	-1502
▁맛	-1503
▁문의	-1504
▁경험	-1505
▁땅	-1506
▁보호	-1507
le	-1508
▁합니다	-1509
했다는	-1510
▁익	-1511
▁변경	-1512
▁멀	-1513
위에	-1514
▁의원은	-1515
▁나라	-1516
▁예산	-1517
▁괜	-1518
불어	-1519
이어	-1520
▁넣	-1521
▁마지막	-1522
통신	-1523
▁나와	-1524
▁스타	-1525
▁받을	-1526
▁달려	-1527
느냐	-1528
▁없을	-1529
▁향후	-1530
▁사고	-1531
▁있다며	-1532
▁못한	-1533
▁요청	-1534
▁푸	-1535
▁더불어	-1536
▁있게	-1537
하겠다고	-1538
▁연락	-1539
▁느끼	-1540
상에	-1541
수의	-1542
▁국정	-1543
▁정확	-1544
▁쉬	-1545
▁못하고	-1546
▁공간	-1547
사회	-1548
▁앉아	-1549
▁전문가	-1550
▁보다	-1551
업을	-1552
▁해서	-1553
▁나타났다	-1554
▁데이터	-1555
▁핵심	-1556
▁끄	-1557
원에서	-1558
▁하락	-1559
선거	-1560
▁과거	-1561
ar	-1562
▁두고	-1563
▁분위	-1564
제가	-1565
▁괴	-1566
▁발전	-1567
▁반영	-1568
▁대구	-1569
▁으	-1570
▁여전히	-1571
▁잃	-1572
▁어머니	-1573
▁꼭	-1574
▁제대로	-1575
나라	-1576
▁사람들이	-1577
▁워	-1578
▁기반	-1579
▁감소	-1580
▁티	-1581
▁혹시	-1582
▁않는다	-1583
▁흥	-1584
▁읽	-1585
▁덧붙였다	-1586
한테	-1587
▁래	-1588
▁정부의	-1589
▁삶	-1590
비를	-1591
로부터	-1592
▁틀	-1593
30	-1594
서비스	-1595
▁뭔	-1596
▁전달	-1597
므로	-1598
웠다	-1599
▁정부는	-1600
▁29	-1601
▁조직	-1602
럭시	-1603
▁방침	-1604
▁힘을	-1605
▁되었다	-1606
▁대통령의	-1607
▁합의	-1608
▁댓글	-1609
▁치료	-1610
장으로	-1611
▁헌	-1612
▁자동차	-1613
▁온라인	-1614
▁들어가	-1615
▁N	-1616
드를	-1617
▁방향	-1618
▁이야기	-1619
으면서	-1620
▁아름	-1621
주가	-1622
▁문제가	-1623
▁실적	-1624
▁젊	-1625
▁보험	-1626
▁위치	-1627
▁이루	-1628
▁일자리	-1629
너지	-1630
▁한반	-1631
하지만	-1632
▁것이었다	-1633
품을	-1634
▁근로	-1635
▁충분	-1636
▁싫	-1637
씨가	-1638
▁최저	-1639
▁징	-1640
▁자세	-1641
▁잘못	-1642
▁관련해	-1643
50	-1644
▁냉	-1645
이란	-1646
경제	-1647
없는	-1648
국의	-1649
금액	-1650
▁그들은	-1651
우는	-1652
▁얼마나	-1653
▁일어나	-1654
▁코스	-1655
▁컨	-1656
▁업계	-1657
리의	-1658
께서	-1659
이기	-1660
▁안정	-1661
▁참가	-1662
▁던	-1663
▁행사	-1664
▁촉	-1665
▁p	-1666
▁비판	-1667
▁수요	-1668
▁하늘	-1669
▁금액	-1670
동산	-1671
▁사전	-1672
▁아이폰	-1673
금융	-1674
▁보도	-1675
▁갤럭시	-1676
▁의혹	-1677
it	-1678
▁성과	-1679
▁최초	-1680
으로는	-1681
▁빼	-1682
▁의료	-1683
단을	-1684
▁우수	-1685
▁수익	-1686
▁됐	-1687
▁시간이	-1688
도시	-1689
▁멈	-1690
▁우리가	-1691
▁물었다	-1692
시오	-1693
▁들었다	-1694
▁욕	-1695
자와	-1696
▁빌	-1697
조사	-1698
하거나	-1699
치고	-1700
부에	-1701
상의	-1702
▁보유	-1703
▁스스로	-1704
▁억	-1705
▁느낌	-1706
▁H	-1707
▁휴대	-1708
▁명의	-1709
▁마을	-1710
문에	-1711
▁끼	-1712
▁갖고	-1713
▁외교	-1714
en	-1715
▁러시아	-1716
▁듯한	-1717
이익	-1718
어진	-1719
▁직원	-1720
▁끊	-1721
거래	-1722
▁앞에	-1723
▁중요한	-1724
주택	-1725
▁책임	-1726
렀다	-1727
▁F	-1728
▁찬	-1729
회가	-1730
▁라는	-1731
반기	-1732
롭게	-1733
es	-1734
▁없다고	-1735
치가	-1736
▁자신을	-1737
보는	-1738
차를	-1739
▁방안	-1740
▁일으	-1741
분기	-1742
디어	-1743
내는	-1744
▁방송	-1745
라이	-1746
▁주택	-1747
성과	-1748
▁보니	-1749
▁생각이	-1750
▁민주당	-1751
▁가는	-1752
▁도와	-1753
▁전환	-1754
▁히	-1755
▁희망	-1756
▁나도	-1757
▁만에	-1758
스터	-1759
에게는	-1760
▁으로	-1761
▁대화	-1762
▁신경	-1763
▁지급	-1764
분의	-1765
▁보이는	-1766
▁아침	-1767
▁쓸	-1768
스크	-1769
▁청구	-1770
▁낙	-1771
겠지	-1772
했을	-1773
▁선택약정	-1774
관계	-1775
▁달리	-1776
▁택	-1777
움을	-1778
▁수는	-1779
▁사실을	-1780
▁있었던	-1781
습니까	-1782
▁대책	-1783
쇼핑	-1784
▁500	-1785
▁본격	-1786
관은	-1787
금이	-1788
카드	-1789
보를	-1790
▁대해서	-1791
사일	-1792
▁없다는	-1793
겼다	-1794
▁대해서는	-1795
▁중심으로	-1796
▁개정	-1797
▁전해	-1798
▁그동안	-1799
건을	-1800
▁어깨	-1801
▁까	-1802
▁옮	-1803
▁평창	-1804
▁알려졌다	-1805
▁조용	-1806
▁받았다	-1807
▁부족	-1808
▁눈에	-1809
▁통신	-1810
스럽게	-1811
▁은행	-1812
두고	-1813
▁빈	-1814
▁체험	-1815
년부터	-1816
식이	-1817
▁통합	-1818
히려	-1819
▁지적했다	-1820
중에	-1821
실을	-1822
▁처리	-1823
▁끌어	-1824
▁이와	-1825
▁둘러	-1826
▁31	-1827
▁있지	-1828
훈련	-1829
▁높아	-1830
▁공연	-1831
▁굳	-1832
▁빠져	-1833
▁녹	-1834
▁가진	-1835
하실	-1836
▁뇌	-1837
트는	-1838
▁중인	-1839
▁생각을	-1840
▁북한의	-1841
▁국민의	-1842
as	-1843
▁늦	-1844
만이	-1845
회는	-1846
▁꼬	-1847
었지만	-1848
▁채용	-1849
▁대형	-1850
자들의	-1851
▁공식	-1852
지의	-1853
▁중소기업	-1854
리스	-1855
른다	-1856
▁과정에서	-1857
▁지켜	-1858
▁만든	-1859
▁오히려	-1860
▁소개	-1861
▁흑	-1862
으니까	-1863
▁나왔다	-1864
▁행복	-1865
▁들고	-1866
▁활성	-1867
▁퇴	-1868
▁이러한	-1869
▁영향을	-1870
▁됩니다	-1871
▁역할을	-1872
▁왔다	-1873
▁남아	-1874
▁행동	-1875
▁유럽	-1876
어야	-1877
▁실제	-1878
시고	-1879
▁그것을	-1880
정에	-1881
▁위에	-1882
▁카드	-1883
▁차지	-1884
▁레이	-1885
▁인상	-1886
▁느껴	-1887
▁약간	-1888
▁60	-1889
▁가져	-1890
다며	-1891
량을	-1892
이자	-1893
심을	-1894
▁서비스를	-1895
▁조선	-1896
▁대리	-1897
▁괜찮	-1898
▁민간	-1899
▁솔	-1900
▁유통	-1901
▁최종	-1902
▁표현	-1903
성은	-1904
술을	-1905
▁제외	-1906
주를	-1907
▁지지	-1908
▁잊	-1909
▁부동산	-1910
▁약속	-1911
▁붉	-1912
어도	-1913
▁담당	-1914
보험	-1915
▁뒷	-1916
▁공정	-1917
▁기념	-1918
한국	-1919
▁남자	-1920
▁되고	-1921
▁사무	-1922
▁반대	-1923
위가	-1924
▁못했다	-1925
▁걱정	-1926
억원을	-1927
▁속에	-1928
안전	-1929
▁들려	-1930
이에	-1931
▁싶은	-1932
▁혈	-1933
▁교통	-1934
행을	-1935
가고	-1936
고를	-1937
▁염	-1938
관이	-1939
변경	-1940
ing	-1941
들에	-1942
▁일단	-1943
▁반면	-1944
▁이전	-1945
▁어려운	-1946
▁창업	-1947
an	-1948
▁젊은	-1949
기의	-1950
이라며	-1951
자에	-1952
▁프리	-1953
▁시설	-1954
▁그건	-1955
▁서울시	-1956
▁비용	-1957
세가	-1958
▁혜택	-1959
▁인해	-1960
겠지만	-1961
▁걸어	-1962
▁평균	-1963
▁뛰어	-1964
▁받는	-1965
▁있어서	-1966
▁중이다	-1967
감이	-1968
스러운	-1969
▁강원	-1970
다니	-1971
▁문제를	-1972
드리겠습니다	-1973
▁주는	-1974
▁했지만	-1975
▁이라며	-1976
▁쿠	-1977
▁원내	-1978
▁논란	-1979
▁머리를	-1980
▁전시	-1981
▁기획	-1982
▁인도	-1983
달러	-1984
▁사회적	-1985
상은	-1986
▁되지	-1987
▁통한	-1988
▁대체	-1989
▁경남	-1990
▁맥	-1991
▁경기도	-1992
▁보는	-1993
▁회사	-1994
▁파악	-1995
▁제작	-1996
▁불법	-1997
일이	-1998
▁그래도	-1999
▁언론	-2000
▁소리를	-2001
▁덕	-2002
▁사례	-2003
텐츠	-2004
면서도	-2005
om	-2006
하신	-2007
규모	-2008
▁하며	-2009
▁단말기	-2010
▁구체	-2011
▁단지	-2012
▁한반도	-2013
▁혼자	-2014
▁빨리	-2015
▁혐의로	-2016
▁주목	-2017
▁종합	-2018
▁완전히	-2019
▁현장	-2020
할인	-2021
당은	-2022
바일	-2023
▁to	-2024
에선	-2025
▁관한	-2026
하는데	-2027
▁거쳐	-2028
조차	-2029
▁오래	-2030
▁겪	-2031
▁있기	-2032
▁천천	-2033
과는	-2034
▁300	-2035
안이	-2036
▁좌	-2037
성에	-2038
보다는	-2039
▁위해서	-2040
▁듯이	-2041
해도	-2042
▁놀라	-2043
▁북미	-2044
▁분양	-2045
▁같았다	-2046
하려	-2047
▁잇	-2048
▁구속	-2049
▁반응	-2050
▁사람의	-2051
시켜	-2052
▁속에서	-2053
▁지하	-2054
▁전기	-2055
▁천천히	-2056
▁되면	-2057
이의	-2058
▁전쟁	-2059
되었다	-2060
가락	-2061
월부터	-2062
▁사람을	-2063
▁문을	-2064
▁영화	-2065
▁e	-2066
▁선생	-2067
▁것처럼	-2068
▁정상회담	-2069
▁설립	-2070
▁달러	-2071
량이	-2072
▁국방	-2073
al	-2074
계획	-2075
▁수밖에	-2076
하기도	-2077
숨을	-2078
들었다	-2079
올림픽	-2080
아가	-2081
▁인터넷	-2082
▁그게	-2083
▁안에	-2084
구를	-2085
▁아름다	-2086
▁비슷	-2087
▁확실	-2088
▁짐	-2089
▁아울	-2090
▁나무	-2091
▁일어	-2092
이지만	-2093
▁당연	-2094
▁해주	-2095
▁쉽게	-2096
되며	-2097
▁딸	-2098
정상	-2099
▁인증	-2100
만을	-2101
▁각종	-2102
어져	-2103
임금	-2104
▁지금까지	-2105
▁청소	-2106
▁회의	-2107
▁지정	-2108
만큼	-2109
▁미국의	-2110
함을	-2111
▁부탁드립니다	-2112
▁같다	-2113
▁돌려	-2114
▁주장했다	-2115
▁소리가	-2116
▁항공	-2117
▁없습니다	-2118
▁옥	-2119
▁최소	-2120
▁벽	-2121
정부	-2122
▁때는	-2123
▁잡아	-2124
▁끄덕	-2125
▁점을	-2126
안은	-2127
켰다	-2128
▁of	-2129
단은	-2130
▁맞아	-2131
▁제출	-2132
▁지도	-2133
격을	-2134
▁섬	-2135
어버	-2136
▁모바일	-2137
▁번째	-2138
▁현지	-2139
▁장애	-2140
▁현실	-2141
▁인근	-2142
▁대출	-2143
스타	-2144
되면서	-2145
자들은	-2146
▁그림	-2147
▁부모	-2148
체를	-2149
안에	-2150
▁오른	-2151
가의	-2152
▁규제	-2153
▁제조	-2154
▁자유한국	-2155
▁만약	-2156
▁얘기	-2157
▁이벤	-2158
▁넓	-2159
▁입장	-2160
와의	-2161
▁2014	-2162
학생	-2163
▁방안을	-2164
▁아울러	-2165
었을	-2166
▁캠	-2167
관을	-2168
▁199	-2169
▁저는	-2170
▁것이라는	-2171
▁이번에	-2172
▁사업을	-2173
네요	-2174
▁네가	-2175
▁것입니다	-2176
▁마음을	-2177
▁무역	-2178
▁졸	-2179
회에서	-2180
▁의견을	-2181
▁고통	-2182
▁열었다	-2183
▁적이	-2184
▁KT	-2185
▁수입	-2186
점이	-2187
님이	-2188
▁검은	-2189
▁군사	-2190
▁이끌	-2191
▁홈페	-2192
▁라이	-2193
▁똑	-2194
▁시험	-2195
년을	-2196
▁고민	-2197
▁접수	-2198
▁불과	-2199
하니	-2200
▁내놓	-2201
개의	-2202
▁뒤로	-2203
▁얼굴이	-2204
거야	-2205
▁슈	-2206
▁단계	-2207
▁죄송	-2208
복지	-2209
▁국무	-2210
▁th	-2211
▁가득	-2212
나가	-2213
▁에서	-2214
▁제재	-2215
▁살펴	-2216
▁언급	-2217
▁근무	-2218
▁바닥	-2219
▁나온다	-2220
우고	-2221
▁비롯해	-2222
▁l	-2223
했는데	-2224
▁싱	-2225
일을	-2226
▁필요가	-2227
▁든	-2228
▁아니었다	-2229
▁70	-2230
▁U	-2231
▁도착	-2232
▁타고	-2233
시가	-2234
했으며	-2235
생활	-2236
▁호텔	-2237
▁불러	-2238
ic	-2239
▁그럴	-2240
▁게임	-2241
▁달라	-2242
▁이야기를	-2243
쪽으로	-2244
▁계약	-2245
구가	-2246
랫폼	-2247
지원금	-2248
▁출신	-2249
가능	-2250
▁소득	-2251
▁O	-2252
▁엔	-2253
▁W	-2254
▁열고	-2255
이라면	-2256
으로써	-2257
▁R	-2258
▁결혼	-2259
▁가능하다	-2260
가에	-2261
▁저희	-2262
▁과학	-2263
듯이	-2264
▁공유	-2265
▁형태	-2266
▁봤	-2267
해보	-2268
예요	-2269
▁체결	-2270
▁걷	-2271
▁흘러	-2272
적이	-2273
▁역사	-2274
▁강력	-2275
▁변호	-2276
포인트	-2277
음이	-2278
내고	-2279
▁교수는	-2280
▁전통	-2281
▁듣고	-2282
▁이내	-2283
번호	-2284
▁것이라며	-2285
▁국토	-2286
제는	-2287
업계	-2288
▁건물	-2289
명은	-2290
▁쏟	-2291
건설	-2292
▁회복	-2293
이크	-2294
▁입니다	-2295
▁그들의	-2296
▁대한민	-2297
▁누가	-2298
▁내부	-2299
소가	-2300
▁눈이	-2301
민주당	-2302
▁신고	-2303
▁위반	-2304
▁것에	-2305
▁놓고	-2306
하시는	-2307
하였다	-2308
▁불안	-2309
▁하여	-2310
이션	-2311
▁받았	-2312
▁전용	-2313
거운	-2314
▁이사	-2315
항공	-2316
▁비핵	-2317
문이	-2318
▁점검	-2319
▁바른	-2320
▁제도	-2321
▁중단	-2322
청은	-2323
▁기기변경	-2324
분을	-2325
수록	-2326
▁진출	-2327
▁둔	-2328
▁입장을	-2329
▁스마트폰	-2330
▁상처	-2331
▁같아	-2332
▁영국	-2333
▁추천	-2334
▁굴	-2335
리기	-2336
▁시간을	-2337
▁아무리	-2338
▁어린이	-2339
▁가상	-2340
▁전망이다	-2341
▁휴대폰	-2342
드릴	-2343
▁꽃	-2344
▁이달	-2345
▁의해	-2346
▁창출	-2347
▁단순	-2348
▁꼽	-2349
의견	-2350
이드	-2351
본부	-2352
금은	-2353
▁민주	-2354
하시	-2355
▁내용을	-2356
▁알았	-2357
▁누군	-2358
▁마찬	-2359
▁북한이	-2360
▁장기	-2361
▁조정	-2362
스와	-2363
▁대북	-2364
▁소속	-2365
▁유리	-2366
▁그러면서	-2367
▁일은	-2368
▁n	-2369
▁참고	-2370
구요	-2371
▁보았다	-2372
하겠다	-2373
▁가능합니다	-2374
▁이상의	-2375
▁음악	-2376
▁하는데	-2377
▁V	-2378
기고	-2379
▁않다	-2380
었는데	-2381
▁이들은	-2382
선이	-2383
▁써	-2384
▁셈	-2385
▁멍	-2386
년에	-2387
▁사망	-2388
▁도로	-2389
▁통화	-2390
▁교수	-2391
▁엄마	-2392
당이	-2393
▁포함한	-2394
ld	-2395
▁사람들은	-2396
▁측은	-2397
▁차례	-2398
▁엄청	-2399
드시	-2400
▁그녀가	-2401
▁더불어민주당	-2402
▁불구	-2403
▁수행	-2404
▁낮은	-2405
▁사내	-2406
명으로	-2407
자에게	-2408
단이	-2409
사에서	-2410
▁미소를	-2411
▁않으면	-2412
▁우리나라	-2413
▁비해	-2414
▁아시아	-2415
▁콘텐츠	-2416
▁기록했다	-2417
▁늘어	-2418
▁보이지	-2419
▁유명	-2420
▁and	-2421
▁그것이	-2422
▁협의	-2423
▁이들	-2424
▁마찬가지	-2425
▁방침이다	-2426
▁그러자	-2427
카오	-2428
회에	-2429
▁밖에	-2430
▁바라보았다	-2431
▁손에	-2432
▁기준으로	-2433
이면	-2434
▁강남	-2435
였던	-2436
▁올려	-2437
거렸다	-2438
▁예방	-2439
▁밑	-2440
로서	-2441
▁아까	-2442
ad	-2443
산을	-2444
▁작품	-2445
▁단체	-2446
지면서	-2447
인과	-2448
간에	-2449
▁이하	-2450
▁뿌	-2451
세대	-2452
▁흔들	-2453
▁완료	-2454
▁하기	-2455
▁절대	-2456
▁탑	-2457
▁이름을	-2458
▁위로	-2459
▁활성화	-2460
▁주고	-2461
▁강한	-2462
▁기사	-2463
▁내일	-2464
법을	-2465
질을	-2466
▁지금은	-2467
▁수상	-2468
▁부정	-2469
별로	-2470
▁KB	-2471
▁쥐	-2472
▁바탕	-2473
▁경찰은	-2474
사항	-2475
▁플랫폼	-2476
▁반드시	-2477
▁작업	-2478
인으로	-2479
▁장관은	-2480
▁발언	-2481
기와	-2482
▁접근	-2483
점에서	-2484
▁못하는	-2485
▁전남	-2486
▁없고	-2487
▁떠나	-2488
▁여름	-2489
▁대변	-2490
▁줄어	-2491
▁전자	-2492
▁따라서	-2493
▁TV	-2494
▁000	-2495
포츠	-2496
▁자네	-2497
율이	-2498
스코	-2499
▁물러	-2500
▁쌓	-2501
▁홍보	-2502
부와	-2503
▁아니면	-2504
▁확정	-2505
하겠다는	-2506
▁나머	-2507
▁한미	-2508
▁아프	-2509
▁내게	-2510
▁음식	-2511
▁어쩌	-2512
▁보수	-2513
▁취업	-2514
무원	-2515
프라	-2516
위로	-2517
▁바란	-2518
▁사이에	-2519
▁찍	-2520
년까지	-2521
▁통과	-2522
▁샤	-2523
▁몸이	-2524
▁앞에서	-2525
▁부드	-2526
▁동일	-2527
▁떠올	-2528
▁대법	-2529
▁얼굴로	-2530
벤처	-2531
단계	-2532
중앙	-2533
▁목소리가	-2534
리와	-2535
거리는	-2536
▁보통	-2537
▁표정을	-2538
세계	-2539
▁저녁	-2540
길을	-2541
▁운동	-2542
님의	-2543
거든	-2544
화된	-2545
년이	-2546
프트	-2547
▁자율	-2548
러스	-2549
▁원내대표	-2550
▁신용	-2551
▁그저	-2552
시를	-2553
▁빠르게	-2554
▁찌	-2555
▁것과	-2556
▁결과를	-2557
▁정보를	-2558
▁실제로	-2559
▁화장	-2560
차례	-2561
회사	-2562
▁탐	-2563
위의	-2564
▁관심을	-2565
▁에너지	-2566
일에	-2567
▁연속	-2568
▁지키	-2569
▁인공	-2570
경찰	-2571
▁카카오	-2572
▁프랑	-2573
▁앞두고	-2574
▁숲	-2575
▁자유한국당	-2576
만원을	-2577
▁지방선거	-2578
▁중얼	-2579
보았다	-2580
텐데	-2581
▁부과	-2582
▁in	-2583
▁입고	-2584
▁물어	-2585
군은	-2586
▁보이	-2587
▁제안	-2588
지와	-2589
▁울산	-2590
평가	-2591
▁액	-2592
대학	-2593
가족	-2594
촬영	-2595
▁쓴	-2596
▁편의	-2597
신을	-2598
▁처음으로	-2599
구는	-2600
▁예술	-2601
케팅	-2602
▁김정은	-2603
25	-2604
▁대전	-2605
▁심각	-2606
으로부터	-2607
▁맺	-2608
어를	-2609
교통	-2610
▁모르는	-2611
▁어제	-2612
▁만족	-2613
만의	-2614
▁렀	-2615
▁겁니다	-2616
▁쓰러	-2617
트남	-2618
▁훨	-2619
▁최저임금	-2620
▁임대	-2621
▁국회의	-2622
▁회담	-2623
당한	-2624
소득	-2625
▁드리	-2626
▁선고	-2627
뉴스	-2628
▁다이	-2629
활동	-2630
▁대로	-2631
▁증권	-2632
▁대한민국	-2633
▁옛	-2634
트의	-2635
▁35	-2636
▁뒤를	-2637
원과	-2638
정의	-2639
▁씨는	-2640
▁열어	-2641
▁조건	-2642
진을	-2643
▁가서	-2644
▁부회	-2645
화가	-2646
체가	-2647
▁등은	-2648
▁엉	-2649
▁꽤	-2650
▁말은	-2651
▁공모	-2652
▁생각해	-2653
진이	-2654
▁미세	-2655
▁시선을	-2656
▁자리에서	-2657
▁규모의	-2658
▁도움이	-2659
▁신뢰	-2660
▁나선	-2661
운동	-2662
▁돈을	-2663
군의	-2664
▁거기	-2665
▁핸	-2666
▁매년	-2667
▁있었고	-2668
▁전날	-2669
씨의	-2670
▁쳐다보	-2671
▁녀석이	-2672
▁비중	-2673
협력	-2674
▁자리를	-2675
▁쏟아	-2676
▁AI	-2677
▁그곳	-2678
▁짧	-2679
▁했던	-2680
▁독일	-2681
하나	-2682
▁상황에서	-2683
발전	-2684
주고	-2685
▁말고	-2686
등학교	-2687
한다면	-2688
▁뽑	-2689
▁표정으로	-2690
론을	-2691
▁면서	-2692
만에	-2693
▁가르	-2694
▁80	-2695
▁묵	-2696
▁여기에	-2697
단의	-2698
드가	-2699
▁번호	-2700
▁훨씬	-2701
▁그에게	-2702
▁상관	-2703
▁기술을	-2704
▁나누	-2705
이로	-2706
▁홈페이지	-2707
히는	-2708
▁베트남	-2709
▁긍	-2710
분이	-2711
▁업종	-2712
▁기초	-2713
▁소방	-2714
받은	-2715
▁곤	-2716
▁이유로	-2717
만으로	-2718
▁해석	-2719
구조	-2720
요금	-2721
▁평소	-2722
▁손가락	-2723
▁마음이	-2724
▁조치	-2725
▁안보	-2726
만한	-2727
▁비롯한	-2728
▁옆에	-2729
▁바꾸	-2730
시스템	-2731
▁궁금	-2732
▁상황을	-2733
도에	-2734
▁64	-2735
▁그룹	-2736
형을	-2737
80	-2738
▁어찌	-2739
았던	-2740
데이터	-2741
▁공시	-2742
▁모습이	-2743
▁나오는	-2744
▁소녀	-2745
구의	-2746
▁류	-2747
▁없었	-2748
▁원래	-2749
▁인식	-2750
▁불편	-2751
▁관심이	-2752
▁인한	-2753
▁법률	-2754
▁미사일	-2755
▁자녀	-2756
▁소통	-2757
▁의무	-2758
경을	-2759
▁바탕으로	-2760
스러	-2761
▁무료	-2762
율을	-2763
▁인물	-2764
▁주거	-2765
관광	-2766
것도	-2767
▁빅	-2768
▁있다면	-2769
상담	-2770
▁보이고	-2771
▁5%	-2772
▁연합	-2773
22	-2774
▁하면서	-2775
목을	-2776
▁우리의	-2777
▁프로젝	-2778
▁힘들	-2779
▁범죄	-2780
차가	-2781
하셨	-2782
▁나갈	-2783
▁홀	-2784
하였	-2785
▁대단	-2786
▁특정	-2787
▁들여	-2788
▁재미	-2789
▁말이다	-2790
대책	-2791
▁1000	-2792
까지는	-2793
▁오랜	-2794
▁척	-2795
국이	-2796
▁그들이	-2797
▁그랬	-2798
▁조심	-2799
무리	-2800
▁남은	-2801
▁뭔가	-2802
▁길을	-2803
▁새로	-2804
연합	-2805
▁시절	-2806
▁경북	-2807
▁위협	-2808
화폐	-2809
해진	-2810
▁일정	-2811
▁끝나	-2812
▁게다가	-2813
성의	-2814
▁나에게	-2815
▁팀	-2816
▁출발	-2817
생을	-2818
▁기여	-2819
▁삼성전자	-2820
▁선언	-2821
▁위해서는	-2822
▁주인	-2823
▁2013	-2824
▁돌아가	-2825
▁주식	-2826
▁낸	-2827
▁별로	-2828
60	-2829
적을	-2830
워크	-2831
든지	-2832
▁사는	-2833
▁주도	-2834
▁검을	-2835
▁벌써	-2836
▁있으	-2837
▁사태	-2838
▁갔다	-2839
▁특수	-2840
▁불가능	-2841
▁he	-2842
▁노래	-2843
▁복지	-2844
▁아직도	-2845
미엄	-2846
상으로	-2847
▁명령	-2848
증을	-2849
▁예비	-2850
제품	-2851
▁충분히	-2852
▁너무나	-2853
주시	-2854
면을	-2855
▁펼쳐	-2856
▁가로	-2857
▁그렇지	-2858
▁의심	-2859
▁고위	-2860
▁반복	-2861
▁글을	-2862
보니	-2863
▁아무런	-2864
▁약정	-2865
▁연계	-2866
적이고	-2867
노동	-2868
▁소재	-2869
트로	-2870
▁원하는	-2871
▁부문	-2872
트가	-2873
▁묘	-2874
▁점점	-2875
▁년	-2876
▁비핵화	-2877
▁보며	-2878
▁힘이	-2879
▁말이야	-2880
▁아는	-2881
▁정의	-2882
▁있으면	-2883
▁투입	-2884
ll	-2885
텔레	-2886
▁통일	-2887
▁보장	-2888
▁제일	-2889
비가	-2890
▁맞춰	-2891
▁이건	-2892
▁그렇다면	-2893
▁짜	-2894
▁많아	-2895
니아	-2896
나무	-2897
▁2000	-2898
▁가만	-2899
▁마주	-2900
에요	-2901
▁취소	-2902
니스	-2903
▁블랙	-2904
▁미안	-2905
▁소비자	-2906
학과	-2907
역을	-2908
으로서	-2909
▁느꼈	-2910
병원	-2911
▁회장은	-2912
▁나타나	-2913
▁남편	-2914
▁첨	-2915
다란	-2916
▁웃으며	-2917
▁노조	-2918
▁헬	-2919
중한	-2920
▁웃었다	-2921
공항	-2922
대체	-2923
▁발굴	-2924
로를	-2925
▁밥	-2926
▁be	-2927
▁지원을	-2928
▁조용히	-2929
▁유일	-2930
▁수석	-2931
▁개헌	-2932
▁삭	-2933
▁아름다운	-2934
▁상당히	-2935
시키는	-2936
거리며	-2937
▁유치	-2938
기준	-2939
▁지속적으로	-2940
드의	-2941
▁애플	-2942
▁탓	-2943
▁차별	-2944
▁두려	-2945
▁그녀를	-2946
▁멋	-2947
이블	-2948
조정	-2949
▁인수	-2950
▁다니	-2951
▁디자인	-2952
명에	-2953
▁넌	-2954
지털	-2955
▁독립	-2956
▁날아	-2957
▁말았다	-2958
▁붉은	-2959
▁이익	-2960
▁나섰다	-2961
당의	-2962
저히	-2963
▁훈련	-2964
▁겨울	-2965
▁십	-2966
제의	-2967
▁신청서	-2968
▁하게	-2969
▁깜	-2970
▁말하는	-2971
지기	-2972
▁서서	-2973
방을	-2974
▁빠른	-2975
▁프리미엄	-2976
▁이었다	-2977
점으로	-2978
▁특징	-2979
▁32	-2980
▁가까운	-2981
▁바다	-2982
▁커피	-2983
그러	-2984
▁페이스	-2985
▁나머지	-2986
▁이란	-2987
▁만드는	-2988
▁흡	-2989
▁집에	-2990
▁가까이	-2991
▁회장	-2992
▁국립	-2993
▁사항	-2994
▁34	-2995
▁많다	-2996
▁이라는	-2997
▁문제는	-2998
▁긍정	-2999
▁밖으로	-3000
▁화재	-3001
▁반도	-3002
▁해소	-3003
▁기울	-3004
과학	-3005
실에서	-3006
▁꾸준	-3007
▁당장	-3008
▁못할	-3009
지게	-3010
▁털	-3011
하려는	-3012
▁딱	-3013
▁널	-3014
▁기재	-3015
정도	-3016
▁보기	-3017
▁마케팅	-3018
▁말도	-3019
▁선물	-3020
점에	-3021
▁띄	-3022
▁삼성전	-3023
▁젖	-3024
▁이른	-3025
▁잡고	-3026
▁내리	-3027
▁맞는	-3028
▁예상된다	-3029
▁이르	-3030
려면	-3031
▁탁	-3032
▁지배	-3033
▁하이	-3034
▁항상	-3035
▁미리	-3036
▁입주	-3037
▁벌어	-3038
말로	-3039
▁제품을	-3040
아야	-3041
▁다소	-3042
건가요	-3043
▁유심	-3044
▁최초로	-3045
ow	-3046
소는	-3047
▁촉구	-3048
▁필요하다	-3049
▁겸	-3050
▁드래	-3051
일까	-3052
대에서	-3053
겠어	-3054
▁열리는	-3055
▁뭘	-3056
▁속으로	-3057
치지	-3058
▁좋다	-3059
▁비슷한	-3060
▁도망	-3061
▁간단	-3062
▁집계	-3063
▁아닌가	-3064
▁여러분의	-3065
▁불구하고	-3066
▁검찰은	-3067
▁갈등	-3068
▁일시	-3069
▁들이	-3070
분에	-3071
▁납부	-3072
▁쪽으로	-3073
▁아닐	-3074
▁컴	-3075
▁외부	-3076
▁다르	-3077
추고	-3078
▁무시	-3079
전문	-3080
▁네이	-3081
▁이같이	-3082
성도	-3083
▁빙	-3084
▁저렴	-3085
▁청소년	-3086
래도	-3087
▁증거	-3088
▁활동을	-3089
▁사실상	-3090
▁곳에	-3091
▁뒤에	-3092
식품	-3093
▁깊은	-3094
하려고	-3095
11	-3096
놓고	-3097
▁다행	-3098
픽업	-3099
디오	-3100
▁하나의	-3101
▁여기서	-3102
▁구입	-3103
▁유엔	-3104
▁소년	-3105
▁맞춤	-3106
▁당신은	-3107
▁부르	-3108
▁올림픽	-3109
▁않게	-3110
▁개혁	-3111
정상회담	-3112
간다	-3113
▁생각했다	-3114
▁앞으로도	-3115
씨를	-3116
▁언제나	-3117
군이	-3118
▁자리에	-3119
▁자료	-3120
▁담배	-3121
▁중국의	-3122
▁건축	-3123
▁결코	-3124
id	-3125
▁발표했다	-3126
▁전투	-3127
▁배우	-3128
▁말해	-3129
▁작년	-3130
▁g	-3131
셔야	-3132
계가	-3133
▁추정	-3134
▁상황이	-3135
▁핸드	-3136
▁기회를	-3137
▁당신이	-3138
신이	-3139
▁앱	-3140
▁꺼내	-3141
▁확산	-3142
▁진짜	-3143
지방	-3144
▁외국인	-3145
▁영업이익	-3146
▁곁	-3147
▁아내	-3148
▁재정	-3149
봤다	-3150
▁토론	-3151
ac	-3152
▁몰라	-3153
오고	-3154
▁운전	-3155
▁습	-3156
▁챙	-3157
▁세월	-3158
▁버렸다	-3159
▁거부	-3160
▁명이	-3161
국은	-3162
에서의	-3163
▁포기	-3164
▁마무리	-3165
▁매수	-3166
▁밝혀	-3167
▁태양	-3168
해를	-3169
▁걸쳐	-3170
성장	-3171
하우	-3172
▁한참	-3173
▁하다	-3174
▁공감	-3175
▁사과	-3176
▁음성	-3177
▁발생한	-3178
▁시각	-3179
▁있는지	-3180
▁회원	-3181
▁분명히	-3182
▁아르	-3183
70	-3184
트리	-3185
▁가볍	-3186
▁도대체	-3187
▁식품	-3188
▁었다	-3189
▁때까지	-3190
▁한마	-3191
▁않도록	-3192
▁세종	-3193
들로	-3194
받고	-3195
제에	-3196
▁디지털	-3197
셔서	-3198
준다	-3199
▁배치	-3200
덕봞	-3201
▁덮	-3202
▁중에	-3203
▁위약	-3204
▁덜	-3205
▁눈으로	-3206
▁겨우	-3207
혁명	-3208
▁검사	-3209
▁개편	-3210
번째	-3211
▁소유	-3212
▁주로	-3213
▁예약	-3214
▁않습니다	-3215
▁배송	-3216
▁매일	-3217
▁목소리로	-3218
▁자주	-3219
▁미세먼	-3220
▁압박	-3221
사람	-3222
▁당부	-3223
시킨	-3224
아버	-3225
▁당황	-3226
▁가치	-3227
▁한숨을	-3228
문은	-3229
▁사상	-3230
▁연간	-3231
플레이	-3232
공을	-3233
건축	-3234
▁그러면	-3235
▁원칙	-3236
십시오	-3237
▁노트	-3238
▁바뀌	-3239
▁자산	-3240
▁손으로	-3241
▁근거	-3242
드려	-3243
▁헌법	-3244
▁균	-3245
레스	-3246
▁어쩔	-3247
▁혐의를	-3248
는가	-3249
▁벗어나	-3250
▁설계	-3251
▁대규모	-3252
계올림픽	-3253
▁1%	-3254
▁발송	-3255
▁흐름	-3256
▁신속	-3257
투자증권	-3258
률이	-3259
▁계열	-3260
▁하반기	-3261
▁재고	-3262
▁제공한다	-3263
비는	-3264
▁금지	-3265
▁펀	-3266
협의	-3267
대학교	-3268
요일	-3269
▁가정	-3270
▁객	-3271
안의	-3272
크는	-3273
격이	-3274
▁되었	-3275
▁넘는	-3276
님은	-3277
제한	-3278
▁대통령과	-3279
▁즉시	-3280
보면	-3281
만은	-3282
▁전반	-3283
▁부인	-3284
▁거짓	-3285
키는	-3286
TV	-3287
▁3%	-3288
▁2012	-3289
▁선수	-3290
차는	-3291
▁싶어	-3292
류를	-3293
바닥	-3294
▁판결	-3295
▁떼	-3296
▁굉	-3297
했다며	-3298
▁차가	-3299
▁눈빛	-3300
▁무서	-3301
▁셀	-3302
▁떨어져	-3303
▁방식으로	-3304
▁그걸	-3305
▁보건	-3306
▁따로	-3307
▁완화	-3308
▁소송	-3309
점은	-3310
▁경우가	-3311
▁상대로	-3312
▁제보를	-3313
▁그러니까	-3314
▁시도	-3315
▁이상한	-3316
▁전면	-3317
▁콜	-3318
▁답변	-3319
프로	-3320
▁45	-3321
▁살짝	-3322
구에	-3323
▁안으로	-3324
절한	-3325
트워크	-3326
▁숨을	-3327
상에서	-3328
▁아동	-3329
건이	-3330
제도	-3331
▁감사합니다	-3332
바로	-3333
▁맹	-3334
어가	-3335
▁자금	-3336
실로	-3337
▁적극적으로	-3338
▁관광객	-3339
상품	-3340
▁여론	-3341
▁주가	-3342
▁대중	-3343
▁매장	-3344
▁쇼핑	-3345
규직	-3346
했으나	-3347
ot	-3348
▁주었다	-3349
▁바이오	-3350
▁올랐다	-3351
▁작용	-3352
▁입술	-3353
▁이제는	-3354
▁쫓	-3355
▁라며	-3356
▁못해	-3357
▁대기업	-3358
▁엄청난	-3359
지능	-3360
▁기분이	-3361
리라	-3362
▁반도체	-3363
▁봄	-3364
력은	-3365
▁아닙	-3366
▁깔	-3367
공사	-3368
▁후에	-3369
지면	-3370
▁녀석의	-3371
월까지	-3372
▁옷을	-3373
▁아버지	-3374
▁개의	-3375
▁있었지만	-3376
▁동의	-3377
▁정리	-3378
▁인권	-3379
협회	-3380
▁광고	-3381
시의	-3382
소에	-3383
▁완성	-3384
▁집행	-3385
▁곡	-3386
▁페이스북	-3387
▁성폭	-3388
▁만한	-3389
▁조사를	-3390
다시	-3391
▁즐길	-3392
▁충남	-3393
호를	-3394
▁결제	-3395
▁동물	-3396
▁전년	-3397
▁뜻을	-3398
▁정도의	-3399
문의	-3400
받는	-3401
▁들은	-3402
▁생각하고	-3403
장한	-3404
▁의사	-3405
조를	-3406
▁생긴	-3407
인들이	-3408
리카	-3409
▁기다립니다	-3410
발을	-3411
▁블록	-3412
▁2%	-3413
▁정확한	-3414
▁기업의	-3415
▁확인할	-3416
▁피해를	-3417
▁했다고	-3418
▁훌	-3419
가로	-3420
▁주제로	-3421
▁갔	-3422
마저	-3423
▁기소	-3424
▁완전	-3425
▁분노	-3426
▁뻗	-3427
▁찾는	-3428
종의	-3429
경영	-3430
▁센	-3431
▁오픈	-3432
▁마침	-3433
▁도움을	-3434
▁눈동	-3435
신의	-3436
12	-3437
▁비상	-3438
▁36	-3439
▁아니고	-3440
▁채팅	-3441
▁관측	-3442
된다고	-3443
다른	-3444
▁순매	-3445
▁이거	-3446
▁웃음을	-3447
ve	-3448
진은	-3449
심이	-3450
기지	-3451
에만	-3452
▁돕	-3453
▁늘어나	-3454
▁추가로	-3455
▁투자의견	-3456
▁출범	-3457
히고	-3458
▁일행	-3459
▁가만히	-3460
▁강력한	-3461
im	-3462
마를	-3463
▁투명	-3464
▁곳이	-3465
마을	-3466
았고	-3467
▁처벌	-3468
▁의원이	-3469
▁부여	-3470
▁아무도	-3471
▁따뜻	-3472
▁간담	-3473
▁달성	-3474
표를	-3475
▁90	-3476
▁감독	-3477
▁칠	-3478
▁내고	-3479
▁않으	-3480
▁커다란	-3481
▁신설	-3482
▁제공하는	-3483
▁큑	-3484
▁프랑스	-3485
▁받아들	-3486
▁나올	-3487
되기	-3488
▁마음에	-3489
▁란	-3490
▁연장	-3491
있다	-3492
단지	-3493
▁얼굴에	-3494
BC	-3495
▁33	-3496
당을	-3497
▁실현	-3498
▁정권	-3499
▁해양	-3500
▁스포츠	-3501
▁후보는	-3502
▁실패	-3503
▁J	-3504
전이	-3505
▁집어	-3506
▁코스닥	-3507
▁사람들	-3508
40	-3509
▁인공지능	-3510
▁촬영	-3511
됐다고	-3512
▁왠	-3513
수수	-3514
▁이용해	-3515
▁기다려	-3516
일은	-3517
▁이게	-3518
질이	-3519
리어	-3520
▁어쨌	-3521
▁했는데	-3522
▁이유는	-3523
▁떨어진	-3524
렉트	-3525
▁징역	-3526
간의	-3527
▁CJ	-3528
상공	-3529
▁연구원은	-3530
us	-3531
량은	-3532
▁만난	-3533
▁실질	-3534
▁튀	-3535
▁잠깐	-3536
▁오르	-3537
▁사실이	-3538
시킬	-3539
▁상반기	-3540
▁출고가	-3541
▁비밀	-3542
▁초과	-3543
지자	-3544
받아	-3545
▁왼	-3546
▁모집	-3547
▁정기	-3548
▁신한	-3549
▁자랑	-3550
버린	-3551
▁지시	-3552
도와	-3553
▁팔을	-3554
▁대답했다	-3555
▁미친	-3556
▁지자	-3557
서관	-3558
▁남성	-3559
▁박근	-3560
▁어둠	-3561
▁바이	-3562
▁흠	-3563
▁쓰고	-3564
▁본인	-3565
ly	-3566
▁측면	-3567
이었던	-3568
▁최대한	-3569
ec	-3570
▁받지	-3571
▁위원장은	-3572
보다도	-3573
▁무릎	-3574
▁절반	-3575
가구	-3576
지구	-3577
▁이행	-3578
널드	-3579
▁시작한	-3580
▁특검	-3581
▁아아	-3582
자치	-3583
학년	-3584
자동	-3585
▁쏘	-3586
▁혀	-3587
▁먹고	-3588
을까	-3589
▁내에	-3590
▁들어갔다	-3591
▁정신을	-3592
▁점에서	-3593
▁새벽	-3594
력과	-3595
▁대해서도	-3596
해져	-3597
▁모른다	-3598
▁드래곤	-3599
증이	-3600
사들이	-3601
▁말한다	-3602
ut	-3603
사고	-3604
▁밝혔	-3605
억원으로	-3606
▁증가했다	-3607
▁보인	-3608
▁y	-3609
▁취임	-3610
직원	-3611
▁힐	-3612
▁프로그램을	-3613
▁인기	-3614
▁대기	-3615
▁어울	-3616
해요	-3617
스토	-3618
▁요즘	-3619
▁목소리	-3620
▁성과를	-3621
▁목소리를	-3622
무를	-3623
▁모여	-3624
냄새	-3625
▁영상	-3626
▁사용할	-3627
확인	-3628
▁박근혜	-3629
▁어깨를	-3630
▁이때	-3631
말을	-3632
▁맨	-3633
▁등에서	-3634
▁폴	-3635
▁가볍게	-3636
90	-3637
수도	-3638
자원	-3639
체인	-3640
▁기능을	-3641
화에	-3642
▁충북	-3643
스에	-3644
▁했습니다	-3645
예술	-3646
▁전북	-3647
▁하자	-3648
▁효율	-3649
데요	-3650
▁베이	-3651
▁밝힌	-3652
냐는	-3653
▁통상	-3654
있던	-3655
▁있겠	-3656
▁인터뷰	-3657
▁쾌	-3658
▁기운	-3659
▁진행한다	-3660
▁효과를	-3661
▁닿	-3662
께서는	-3663
▁메시	-3664
▁대선	-3665
▁있어야	-3666
방송	-3667
▁김영	-3668
달라고	-3669
▁혜택을	-3670
▁주의	-3671
▁상장	-3672
▁거리	-3673
▁거지	-3674
▁2020	-3675
부로	-3676
실에	-3677
뿐만	-3678
▁등도	-3679
▁말할	-3680
▁닫	-3681
▁셈이다	-3682
▁규정	-3683
▁매매	-3684
▁맞춤형	-3685
▁미소	-3686
▁공포	-3687
심히	-3688
감독	-3689
들고	-3690
▁덒	-3691
▁수수	-3692
▁사은	-3693
▁위치한	-3694
gh	-3695
▁들어서	-3696
지며	-3697
▁형성	-3698
▁전해졌다	-3699
▁매달	-3700
▁한국의	-3701
▁게시	-3702
▁떠오	-3703
리오	-3704
▁낼	-3705
▁변동	-3706
▁도널드	-3707
▁4%	-3708
▁한마디	-3709
▁선발	-3710
▁공사	-3711
단에	-3712
이니	-3713
리스트	-3714
▁책임을	-3715
▁거듭	-3716
▁병원	-3717
▁졸업	-3718
▁할부금	-3719
▁거대한	-3720
리한	-3721
▁임시	-3722
와는	-3723
▁혹은	-3724
공원	-3725
▁계획을	-3726
률을	-3727
움이	-3728
▁가능성을	-3729
대출	-3730
▁융	-3731
▁인프라	-3732
▁효과가	-3733
▁수령	-3734
미를	-3735
▁흉	-3736
▁긴급	-3737
▁새롭게	-3738
파크	-3739
▁IT	-3740
▁그것도	-3741
▁고양	-3742
명과	-3743
▁공무원	-3744
▁멀리	-3745
▁뉴욕	-3746
▁쌍	-3747
▁담은	-3748
속도로	-3749
▁내렸다	-3750
하이	-3751
▁네이버	-3752
▁허용	-3753
▁여야	-3754
▁종목	-3755
▁시장의	-3756
▁노려	-3757
라우	-3758
소리	-3759
▁때마다	-3760
▁사장	-3761
있었다	-3762
▁너는	-3763
고객	-3764
▁임금	-3765
▁과연	-3766
▁장난	-3767
속에	-3768
기만	-3769
▁최고의	-3770
사한	-3771
▁르	-3772
재를	-3773
▁형사	-3774
▁제시한	-3775
어는	-3776
▁빚	-3777
함이	-3778
▁발표한	-3779
▁조합	-3780
▁머물	-3781
▁상대적으로	-3782
진흥	-3783
▁뚫	-3784
▁생각하는	-3785
자산	-3786
스런	-3787
▁수용	-3788
▁주차	-3789
▁느낄	-3790
전의	-3791
▁뻔	-3792
보호	-3793
▁이벤트	-3794
끄러	-3795
▁명예	-3796
해졌다	-3797
▁생각한다	-3798
▁이것은	-3799
▁진단	-3800
위원장	-3801
▁분석했다	-3802
21	-3803
▁어서	-3804
▁가리	-3805
▁목적	-3806
▁환자	-3807
▁가맹	-3808
▁아냐	-3809
하고자	-3810
메라	-3811
▁낭	-3812
▁모르게	-3813
▁뿐만	-3814
▁무언	-3815
▁입력	-3816
▁싫어	-3817
▁수립	-3818
▁시는	-3819
▁인간의	-3820
간을	-3821
▁시작으로	-3822
▁쓰는	-3823
▁핸드폰	-3824
▁나왔	-3825
▁나이	-3826
▁사전예	-3827
▁입은	-3828
관에서	-3829
▁늘었다	-3830
▁알게	-3831
▁눈앞	-3832
개가	-3833
화점	-3834
▁너희	-3835
서에	-3836
▁정책을	-3837
션을	-3838
▁긴장	-3839
▁뭐야	-3840
▁밴	-3841
▁한국당	-3842
▁시장은	-3843
▁선배	-3844
대회	-3845
▁양국	-3846
자금	-3847
하세요	-3848
▁대변인은	-3849
님을	-3850
위원회는	-3851
500	-3852
▁친환경	-3853
▁틈	-3854
식으로	-3855
린이	-3856
▁보지	-3857
락을	-3858
▁여부를	-3859
▁이재	-3860
▁렌	-3861
서가	-3862
▁was	-3863
▁모아	-3864
약품	-3865
▁7%	-3866
▁사람들의	-3867
▁이외	-3868
▁스페	-3869
였고	-3870
▁꾸준히	-3871
월드	-3872
▁몽	-3873
▁매각	-3874
▁노력을	-3875
▁보도했다	-3876
▁안타	-3877
▁관련된	-3878
▁안에서	-3879
아는	-3880
▁활용해	-3881
▁아무래도	-3882
함으로써	-3883
▁비록	-3884
▁이용할	-3885
▁놈이	-3886
▁최선을	-3887
5000	-3888
▁노인	-3889
하의	-3890
▁와서	-3891
신청	-3892
▁에어	-3893
▁적은	-3894
▁시장을	-3895
▁비난	-3896
▁수준으로	-3897
▁입술을	-3898
▁몰아	-3899
▁문득	-3900
▁주먹	-3901
일로	-3902
많은	-3903
월에	-3904
▁포인트	-3905
▁훼	-3906
▁우려가	-3907
▁어떠	-3908
▁금리	-3909
▁뿐이었다	-3910
지사	-3911
▁피부	-3912
▁몸에	-3913
시다	-3914
버렸다	-3915
▁싱가	-3916
▁수도권	-3917
주로	-3918
조합	-3919
럽게	-3920
▁바라보고	-3921
▁권한	-3922
▁물을	-3923
▁획	-3924
하라고	-3925
▁등과	-3926
석이	-3927
▁누구나	-3928
▁몹	-3929
▁자본	-3930
▁말하고	-3931
석을	-3932
▁인사를	-3933
보가	-3934
▁여유	-3935
리게	-3936
▁논란이	-3937
스티	-3938
▁당선	-3939
▁미국이	-3940
▁구체적인	-3941
계의	-3942
색이	-3943
▁새끼	-3944
▁진입	-3945
▁육성	-3946
▁시장에	-3947
▁자식	-3948
▁비행	-3949
▁생태	-3950
▁10%	-3951
24	-3952
▁열심히	-3953
텔레콤	-3954
▁녀석은	-3955
진의	-3956
▁관세	-3957
▁촡	-3958
시험	-3959
▁통해서	-3960
▁재건축	-3961
퓨터	-3962
받을	-3963
▁서류	-3964
▁끝에	-3965
▁지역의	-3966
▁말인가	-3967
▁초청	-3968
▁뮤	-3969
포르	-3970
▁가고	-3971
일에는	-3972
▁사법	-3973
▁이다	-3974
▁말한	-3975
▁택배	-3976
▁분류	-3977
▁반발	-3978
▁대표가	-3979
▁감안	-3980
▁스트	-3981
▁죽음	-3982
▁썼	-3983
했기	-3984
▁뚜	-3985
▁현대차	-3986
▁보아	-3987
▁론	-3988
▁다음달	-3989
관의	-3990
▁38	-3991
▁주시	-3992
▁개별	-3993
▁대리점	-3994
선의	-3995
산물	-3996
▁옮겨	-3997
▁묶	-3998
▁직후	-3999
▁그들을	-4000
▁사드	-4001
▁예측	-4002
▁상호	-4003
▁400	-4004
적이다	-4005
▁관람	-4006
▁바라보며	-4007
▁턱	-4008
▁이틀	-4009
결과	-4010
비용	-4011
▁그와	-4012
▁동반	-4013
▁거주	-4014
▁등장	-4015
▁깨끗	-4016
사업을	-4017
코리아	-4018
▁일자	-4019
공감	-4020
▁어째	-4021
▁아무것도	-4022
▁특허	-4023
▁나오고	-4024
et	-4025
면에	-4026
시키고	-4027
▁결합	-4028
▁법무	-4029
▁진행된다	-4030
▁198	-4031
▁안되	-4032
▁경고	-4033
▁내용이	-4034
▁지었다	-4035
▁움직임	-4036
▁사은품	-4037
에게서	-4038
기기	-4039
▁파트	-4040
▁합리	-4041
▁블루	-4042
▁있었는데	-4043
▁화가	-4044
▁지원금	-4045
▁초기	-4046
▁어두	-4047
살을	-4048
▁시장에서	-4049
▁달아	-4050
▁바로픽업	-4051
▁햇	-4052
▁쇼	-4053
서야	-4054
▁가상화폐	-4055
▁8%	-4056
▁한다며	-4057
호는	-4058
▁끈	-4059
끼리	-4060
▁운용	-4061
겠어요	-4062
▁풀어	-4063
색을	-4064
▁이탈	-4065
▁과정을	-4066
▁직장	-4067
선에	-4068
▁늘어난	-4069
▁꼼	-4070
▁끄덕였다	-4071
▁50%	-4072
수로	-4073
국제	-4074
▁복합	-4075
▁임명	-4076
▁돌렸다	-4077
▁붙잡	-4078
▁특별한	-4079
▁멈추	-4080
▁수술	-4081
▁아닙니다	-4082
상과	-4083
십니까	-4084
부모	-4085
▁무기	-4086
마자	-4087
15	-4088
▁컬	-4089
▁섭	-4090
소로	-4091
이사	-4092
▁높다	-4093
전략	-4094
▁것이고	-4095
▁아가	-4096
화는	-4097
▁6%	-4098
향을	-4099
▁실무	-4100
▁정비	-4101
▁제거	-4102
인증	-4103
▁있으니	-4104
개혁	-4105
▁관련한	-4106
▁종교	-4107
▁있어요	-4108
되었습니다	-4109
▁죄송합니다	-4110
▁확실히	-4111
▁좁	-4112
▁당일	-4113
▁내밀	-4114
▁틀림	-4115
▁뉴스	-4116
▁상상	-4117
대와	-4118
▁이리	-4119
▁이번에는	-4120
▁높이	-4121
▁춘	-4122
▁나중에	-4123
▁출연	-4124
자들을	-4125
선은	-4126
▁마감	-4127
억원의	-4128
▁근처	-4129
▁사용하는	-4130
유의	-4131
99	-4132
이프	-4133
▁것인가	-4134
▁아마도	-4135
▁쳐다	-4136
▁포함해	-4137
▁싱가포르	-4138
▁갖춘	-4139
▁상품을	-4140
▁자세한	-4141
▁빗	-4142
▁지휘	-4143
하면서도	-4144
▁땀	-4145
▁하던	-4146
해왔다	-4147
액은	-4148
▁보낸	-4149
▁곳은	-4150
▁수많은	-4151
▁이라	-4152
식에	-4153
사인	-4154
▁모두가	-4155
▁정당	-4156
생이	-4157
▁스타트	-4158
▁추세	-4159
▁37	-4160
▁9%	-4161
▁주력	-4162
▁포항	-4163
▁죽은	-4164
▁보안	-4165
▁상징	-4166
회의에서	-4167
▁법정	-4168
▁마리	-4169
지법	-4170
▁IC	-4171
▁행사를	-4172
▁소설	-4173
▁하하	-4174
▁투표	-4175
▁전화를	-4176
▁웨	-4177
▁운영하는	-4178
▁선임	-4179
았지만	-4180
▁20%	-4181
▁목표주가	-4182
구역	-4183
직한	-4184
▁냄새	-4185
▁대화를	-4186
▁곳에서	-4187
▁그들	-4188
▁실험	-4189
소리가	-4190
▁주지	-4191
▁이래	-4192
▁가치를	-4193
▁곳곳	-4194
▁그에	-4195
▁팬	-4196
워서	-4197
ion	-4198
▁정치적	-4199
▁웃음	-4200
▁조치를	-4201
▁활용한	-4202
▁농업	-4203
▁센터	-4204
재생	-4205
시티	-4206
▁것인지	-4207
▁섹	-4208
산이	-4209
형이	-4210
▁고급	-4211
▁가야	-4212
판을	-4213
▁굉장	-4214
▁차이가	-4215
피스	-4216
▁기업이	-4217
하겠습니다	-4218
▁지자체	-4219
호가	-4220
▁미국과	-4221
▁도전	-4222
테크	-4223
▁심사	-4224
▁보자	-4225
▁원을	-4226
▁늏	-4227
▁놀란	-4228
치게	-4229
▁장애인	-4230
▁손이	-4231
하라	-4232
▁곳으로	-4233
▁2011	-4234
냐고	-4235
▁살고	-4236
▁의한	-4237
▁낳	-4238
▁자치	-4239
▁코스피	-4240
▁당신의	-4241
▁that	-4242
▁설마	-4243
▁질문에	-4244
▁흰	-4245
▁방법을	-4246
▁풀이	-4247
▁많았다	-4248
선으로	-4249
▁법인	-4250
▁폭발	-4251
▁사전예약	-4252
상태	-4253
▁섞	-4254
▁네트워크	-4255
▁이슈	-4256
▁취약	-4257
▁아니야	-4258
▁끌고	-4259
력의	-4260
▁저항	-4261
대비	-4262
▁you	-4263
▁부처	-4264
▁닦	-4265
▁배출	-4266
름이	-4267
ED	-4268
▁밀어	-4269
▁경우에는	-4270
▁뭐가	-4271
▁보조	-4272
토록	-4273
▁웅	-4274
▁체계	-4275
▁바닥에	-4276
량의	-4277
▁당부했다	-4278
▁횡	-4279
▁의식	-4280
▁목표로	-4281
건으로	-4282
▁전부	-4283
▁The	-4284
▁공기	-4285
▁주관	-4286
자료	-4287
▁수십	-4288
무역	-4289
▁공공기관	-4290
복을	-4291
▁어디서	-4292
▁국민의당	-4293
▁그렇다고	-4294
▁아예	-4295
경이	-4296
▁상황에	-4297
였지만	-4298
주행	-4299
NS	-4300
▁39	-4301
▁침묵	-4302
시부터	-4303
▁나쁜	-4304
ay	-4305
나의	-4306
▁벨	-4307
▁계기로	-4308
▁내다	-4309
해주시면	-4310
▁사장은	-4311
▁컴퓨터	-4312
▁평가를	-4313
▁폭염	-4314
였습니다	-4315
▁돌파	-4316
드로	-4317
▁대폭	-4318
▁다섯	-4319
번에	-4320
▁기계	-4321
미래	-4322
▁정말로	-4323
목에	-4324
르며	-4325
▁혼란	-4326
▁책을	-4327
▁지식	-4328
분야	-4329
하시면	-4330
▁조회	-4331
▁on	-4332
▁양해	-4333
▁강하게	-4334
력에	-4335
티브	-4336
따라	-4337
▁느꼈다	-4338
▁폰	-4339
처리	-4340
▁복잡	-4341
▁파트너	-4342
▁생각에	-4343
행정	-4344
쪽에	-4345
▁때문이었다	-4346
세로	-4347
▁좋을	-4348
▁표정	-4349
▁로봇	-4350
▁re	-4351
▁힘든	-4352
▁캠페	-4353
GB	-4354
▁k	-4355
년대	-4356
▁선도	-4357
▁데리고	-4358
▁무너	-4359
▁뭐라고	-4360
이너	-4361
법인	-4362
그래	-4363
대상	-4364
▁밟	-4365
os	-4366
▁오늘은	-4367
중이	-4368
▁증가한	-4369
▁좋지	-4370
▁여의	-4371
봐야	-4372
▁가을	-4373
▁이루어	-4374
▁찢	-4375
재단	-4376
▁없었던	-4377
▁오빠	-4378
▁않아도	-4379
민의	-4380
▁모른	-4381
▁린	-4382
리면	-4383
는데요	-4384
▁의결	-4385
이즈	-4386
▁질문	-4387
▁그날	-4388
▁신분	-4389
▁아들	-4390
▁깜짝	-4391
▁여러분	-4392
었어	-4393
마는	-4394
▁X	-4395
력으로	-4396
▁탑재	-4397
▁눈치	-4398
▁방문해	-4399
▁국내외	-4400
▁구성된	-4401
▁분위기	-4402
ct	-4403
▁했고	-4404
상황	-4405
장애	-4406
▁죽을	-4407
▁꼴	-4408
▁이같은	-4409
질의	-4410
▁무척	-4411
온다	-4412
▁자극	-4413
▁점이	-4414
▁가격이	-4415
▁하얀	-4416
▁들어오	-4417
▁일제	-4418
▁실천	-4419
ag	-4420
▁협상	-4421
▁날카	-4422
▁확장	-4423
색의	-4424
▁이처럼	-4425
▁상황이다	-4426
▁관계를	-4427
▁파견	-4428
아의	-4429
▁후원	-4430
▁냈다	-4431
▁인하	-4432
▁차원에서	-4433
▁종료	-4434
마의	-4435
시켰다	-4436
▁참석한	-4437
망을	-4438
▁이유가	-4439
▁열린다	-4440
▁30%	-4441
▁카페	-4442
▁시범	-4443
체육	-4444
수한	-4445
▁이른바	-4446
▁부서	-4447
▁등이다	-4448
▁심리	-4449
▁이들이	-4450
▁하나가	-4451
▁된다고	-4452
▁필수	-4453
▁역대	-4454
▁65	-4455
인에게	-4456
▁사건을	-4457
▁화학	-4458
▁어쨌든	-4459
▁절차	-4460
수사	-4461
▁술을	-4462
소에서	-4463
▁바보	-4464
▁지원하는	-4465
▁수준의	-4466
생의	-4467
▁깨달	-4468
▁주말	-4469
▁올해는	-4470
▁부딪	-4471
실이	-4472
군을	-4473
이었지만	-4474
▁현행	-4475
▁거론	-4476
▁런	-4477
모델	-4478
▁심각한	-4479
▁집을	-4480
▁미세먼지	-4481
▁줘	-4482
▁차단	-4483
▁고려해	-4484
▁빅데이터	-4485
▁나타난	-4486
ent	-4487
급을	-4488
▁상태다	-4489
▁생명	-4490
▁머리카	-4491
졌고	-4492
▁자체가	-4493
▁발사	-4494
라스	-4495
▁동료	-4496
건의	-4497
▁기다리고	-4498
연을	-4499
TA	-4500
▁개방	-4501
▁거예요	-4502
ri	-4503
▁학습	-4504
▁선호	-4505
온은	-4506
▁본다	-4507
▁싶지	-4508
▁쉽지	-4509
빨리	-4510
아서	-4511
리즈	-4512
▁할머니	-4513
국에	-4514
▁2010	-4515
▁시스템을	-4516
장관	-4517
무는	-4518
▁지진	-4519
▁가동	-4520
▁시장이	-4521
화의	-4522
up	-4523
함에	-4524
▁판문	-4525
나마	-4526
▁시대	-4527
류의	-4528
▁평양	-4529
▁주주	-4530
▁맞은	-4531
▁왠지	-4532
▁북핵	-4533
▁동원	-4534
▁일에	-4535
▁나눠	-4536
▁만들고	-4537
심의	-4538
▁덩	-4539
▁드리겠습니다	-4540
▁금감	-4541
▁점차	-4542
▁내는	-4543
▁재난	-4544
ver	-4545
▁대륙	-4546
▁싶다	-4547
▁대법원	-4548
▁봞	-4549
▁굉장히	-4550
미가	-4551
▁전개	-4552
▁비서	-4553
▁당연히	-4554
▁비즈	-4555
▁수원	-4556
스플레이	-4557
▁크리스	-4558
법에	-4559
▁안녕	-4560
▁일이었다	-4561
분간	-4562
▁타이	-4563
▁문자	-4564
▁비가	-4565
▁성격	-4566
el	-4567
활동을	-4568
권이	-4569
▁이젠	-4570
▁길이	-4571
▁것이라	-4572
▁중간	-4573
중인	-4574
회의를	-4575
부문	-4576
▁엑	-4577
▁까지	-4578
▁익숙	-4579
▁진정	-4580
터리	-4581
범죄	-4582
청이	-4583
연금	-4584
▁디자	-4585
톋씉	-4586
▁푸른	-4587
▁샌	-4588
ir	-4589
▁국정원	-4590
여서	-4591
▁이명	-4592
▁출마	-4593
미는	-4594
▁짧은	-4595
▁풍부	-4596
▁눈물을	-4597
로가	-4598
▁답했다	-4599
▁완벽	-4600
▁스타트업	-4601
▁말야	-4602
렸고	-4603
▁안돼	-4604
▁맑	-4605
▁벤	-4606
▁기회	-4607
과정	-4608
▁내용은	-4609
자들에게	-4610
동의	-4611
▁광역	-4612
▁기부	-4613
아이	-4614
▁무엇을	-4615
▁비판했다	-4616
▁필요하다고	-4617
▁교체	-4618
▁폐지	-4619
라리	-4620
▁담긴	-4621
▁의지를	-4622
▁솟	-4623
려서	-4624
▁넘겨	-4625
▁같습니다	-4626
▁전망했다	-4627
국을	-4628
▁아빠	-4629
TE	-4630
▁재산	-4631
▁전력	-4632
우가	-4633
▁조작	-4634
18	-4635
율은	-4636
▁올렸다	-4637
▁없지만	-4638
▁경찰에	-4639
▁가구	-4640
▁기반으로	-4641
▁실시간	-4642
▁테이블	-4643
▁여자가	-4644
운영	-4645
▁뜨거운	-4646
▁바람에	-4647
겠습니까	-4648
▁호소	-4649
본다	-4650
▁구글	-4651
운용	-4652
▁어리	-4653
▁가게	-4654
▁진행하고	-4655
▁저런	-4656
터를	-4657
▁수능	-4658
화와	-4659
▁의미를	-4660
드린	-4661
▁편안	-4662
▁하나로	-4663
▁단축	-4664
▁카메라	-4665
▁당초	-4666
▁칭	-4667
부탁	-4668
▁기종	-4669
▁표준	-4670
▁버린	-4671
▁작가	-4672
▁데려	-4673
▁안심	-4674
▁하였다	-4675
▁된다는	-4676
▁병사	-4677
▁주저	-4678
▁벤처	-4679
▁IP	-4680
지에서	-4681
▁영어	-4682
전쟁	-4683
▁목을	-4684
▁바른정	-4685
▁라인	-4686
▁어쩌면	-4687
▁삶의	-4688
▁GS	-4689
▁남자가	-4690
▁간편	-4691
▁프로젝트	-4692
▁않았지만	-4693
▁며칠	-4694
▁말로	-4695
▁륾	-4696
석은	-4697
▁연기	-4698
▁수사를	-4699
각을	-4700
▁빠져나	-4701
조원	-4702
▁소상공	-4703
개로	-4704
명한	-4705
▁철강	-4706
▁공부	-4707
음에도	-4708
▁덕분에	-4709
▁할부원	-4710
권의	-4711
▁표시	-4712
▁만들었다	-4713
▁유도	-4714
▁2019	-4715
▁공항	-4716
▁엘리	-4717
사무	-4718
▁규모가	-4719
▁자신에게	-4720
▁삶을	-4721
▁쟧	-4722
▁크다	-4723
▁원내대표는	-4724
▁패션	-4725
플러스	-4726
연구원	-4727
▁기아	-4728
▁5000	-4729
▁세워	-4730
▁뛰어난	-4731
▁설정	-4732
▁노출	-4733
이상	-4734
▁재무	-4735
▁it	-4736
둘러	-4737
▁연말	-4738
▁건립	-4739
▁성능	-4740
자고	-4741
해온	-4742
▁아저	-4743
놓은	-4744
▁인력	-4745
▁가라	-4746
▁폐쇄	-4747
▁모르고	-4748
▁받는다	-4749
▁상향	-4750
oo	-4751
▁차를	-4752
▁바란다	-4753
17	-4754
▁조기	-4755
▁대표적인	-4756
리면서	-4757
▁공직	-4758
▁부총	-4759
▁메뉴	-4760
ire	-4761
▁자격	-4762
▁일이다	-4763
▁질환	-4764
▁목숨을	-4765
▁자는	-4766
▁바꿔	-4767
의원	-4768
▁인재	-4769
이기도	-4770
▁지어	-4771
▁젠	-4772
▁창원	-4773
▁없지	-4774
▁공장	-4775
식은	-4776
▁깊이	-4777
▁설명이다	-4778
인가요	-4779
▁개입	-4780
질환	-4781
▁하더라도	-4782
▁지역에	-4783
orld	-4784
▁달하는	-4785
▁나갔다	-4786
게도	-4787
▁선박	-4788
일간	-4789
은행은	-4790
체의	-4791
▁자가	-4792
▁화장품	-4793
▁인기를	-4794
▁임상	-4795
하게도	-4796
▁그러니	-4797
▁권고	-4798
▁구현	-4799
▁눈길을	-4800
▁사람에게	-4801
▁투자를	-4802
인들의	-4803
▁어느새	-4804
웨어	-4805
▁환영	-4806
▁방금	-4807
동이	-4808
▁인구	-4809
치의	-4810
▁태풍	-4811
▁교류	-4812
▁사람들을	-4813
년에는	-4814
야말로	-4815
▁부품	-4816
▁발행	-4817
▁방법으로	-4818
▁150	-4819
공업	-4820
공단	-4821
▁식으로	-4822
나를	-4823
19	-4824
▁가슴이	-4825
▁SNS	-4826
집을	-4827
▁보유한	-4828
▁삭제	-4829
and	-4830
▁공작	-4831
권에	-4832
▁가계	-4833
▁늙	-4834
▁자율주행	-4835
▁우수한	-4836
▁축소	-4837
▁생각은	-4838
▁실내	-4839
▁제외한	-4840
▁저도	-4841
▁들을	-4842
▁이어질	-4843
림을	-4844
▁교육을	-4845
▁뿐이다	-4846
▁첨단	-4847
연구소	-4848
되었	-4849
호텔	-4850
▁검증	-4851
▁개념	-4852
책을	-4853
▁느낌이	-4854
아아	-4855
영은	-4856
년생	-4857
▁브라	-4858
병을	-4859
▁수준을	-4860
호의	-4861
▁변화를	-4862
▁한쪽	-4863
돼야	-4864
세는	-4865
▁먹는	-4866
▁감정	-4867
▁얘기를	-4868
이던	-4869
▁눌	-4870
방법	-4871
버스	-4872
지검	-4873
▁희생	-4874
▁wh	-4875
▁에이	-4876
▁피가	-4877
▁쏠	-4878
▁적극적인	-4879
▁닯	-4880
▁피해자	-4881
▁모니	-4882
▁어째서	-4883
▁주최	-4884
직을	-4885
▁단기	-4886
▁경험을	-4887
주었다	-4888
▁신세계	-4889
학을	-4890
▁상생	-4891
▁몰려	-4892
미사일	-4893
물의	-4894
▁만일	-4895
온이	-4896
▁먹을	-4897
▁낯	-4898
▁만들기	-4899
▁내용의	-4900
▁의미가	-4901
르지	-4902
팀은	-4903
▁방향을	-4904
▁뼈	-4905
▁때도	-4906
우의	-4907
▁CE	-4908
기구	-4909
액이	-4910
▁싶었다	-4911
▁활발	-4912
▁직업	-4913
▁같은데	-4914
▁전담	-4915
주에	-4916
▁이유를	-4917
▁저지	-4918
▁근본	-4919
▁고발	-4920
▁기상	-4921
구청	-4922
▁숫	-4923
▁집계됐다	-4924
▁단독	-4925
여명이	-4926
랍니다	-4927
▁내세	-4928
▁빛을	-4929
▁검색	-4930
▁상임	-4931
▁46	-4932
공간	-4933
씨와	-4934
▁교환	-4935
▁아이디어	-4936
▁축제	-4937
▁컸	-4938
치며	-4939
▁국토교통	-4940
▁버스	-4941
▁제약	-4942
▁가끔	-4943
▁케이	-4944
서의	-4945
▁재판부는	-4946
▁또다시	-4947
14	-4948
▁자꾸	-4949
▁파괴	-4950
▁시청	-4951
▁고객센터	-4952
▁랭	-4953
▁어려움을	-4954
▁수요가	-4955
셨다	-4956
▁이상이	-4957
▁분야에서	-4958
▁북한은	-4959
년의	-4960
▁내린	-4961
▁백악	-4962
▁외에도	-4963
▁핀	-4964
▁이로	-4965
▁부담을	-4966
▁화려	-4967
▁족	-4968
됐고	-4969
▁없어서	-4970
액을	-4971
▁문제에	-4972
계에	-4973
▁사이트	-4974
▁평가했다	-4975
▁비트	-4976
▁헛	-4977
길이	-4978
바이오	-4979
▁누워	-4980
▁실행	-4981
▁52	-4982
계약	-4983
▁한화	-4984
▁방향으로	-4985
▁SKT	-4986
더라	-4987
하다가	-4988
졌습니다	-4989
▁국회에서	-4990
▁시원	-4991
▁보일	-4992
해가	-4993
▁그렇지만	-4994
▁발을	-4995
▁집으로	-4996
가입	-4997
조건	-4998
▁마이크	-4999
▁행동을	-5000
▁이름이	-5001
음에	-5002
▁조금씩	-5003
견을	-5004
▁채널	-5005
▁분리	-5006
▁강릉	-5007
▁본격적인	-5008
▁퇫	-5009
▁것이란	-5010
▁자신도	-5011
▁부분이	-5012
▁배경	-5013
▁만날	-5014
▁절차를	-5015
나게	-5016
▁건너	-5017
잖아요	-5018
▁시가	-5019
▁싸움	-5020
▁진술	-5021
▁아이를	-5022
한데	-5023
▁기타	-5024
▁감싸	-5025
35	-5026
기사	-5027
▁지구	-5028
▁마시	-5029
것이	-5030
▁영역	-5031
▁수치	-5032
▁방지	-5033
▁확인이	-5034
령을	-5035
물은	-5036
실험	-5037
▁곳을	-5038
▁내지	-5039
▁충격	-5040
▁외에	-5041
▁씨가	-5042
▁집단	-5043
조사를	-5044
신가요	-5045
▁합동	-5046
▁대책을	-5047
▁명확	-5048
▁불리는	-5049
할부	-5050
▁것만	-5051
▁수업	-5052
겠소	-5053
▁국회의원	-5054
▁회장이	-5055
▁Y	-5056
▁서울중앙	-5057
▁때가	-5058
▁장비	-5059
▁북측	-5060
▁절대로	-5061
▁이것이	-5062
▁않았던	-5063
▁내쉬	-5064
▁응답	-5065
▁바람이	-5066
▁42	-5067
▁세상	-5068
▁보상	-5069
▁스토	-5070
▁결과가	-5071
▁그러한	-5072
위에서	-5073
▁중요하다	-5074
▁주위를	-5075
▁연휴	-5076
am	-5077
통을	-5078
▁강제	-5079
▁의혹을	-5080
▁공시지원금	-5081
부터는	-5082
주기	-5083
▁계약을	-5084
세에	-5085
차피	-5086
시까지	-5087
와서	-5088
▁상위	-5089
▁맞추	-5090
▁그리고는	-5091
수에	-5092
▁수정	-5093
▁밝히	-5094
▁바른미래	-5095
▁트렌	-5096
▁모를	-5097
▁봉사	-5098
▁활동이	-5099
▁텐데	-5100
화로	-5101
ur	-5102
▁블록체인	-5103
▁모습은	-5104
▁기회가	-5105
▁건가	-5106
니는	-5107
▁죽어	-5108
연히	-5109
라가	-5110
▁자세히	-5111
▁쇠	-5112
▁좋아하는	-5113
▁걸려	-5114
▁훌륭	-5115
▁철저	-5116
적으로는	-5117
해주는	-5118
수요	-5119
에게도	-5120
▁600	-5121
▁48	-5122
▁결정을	-5123
안보	-5124
▁외쳤다	-5125
▁산업혁명	-5126
▁브리	-5127
▁맞이	-5128
▁이끌어	-5129
▁인상을	-5130
▁보완	-5131
▁소환	-5132
▁방법이	-5133
▁주가가	-5134
자도	-5135
종을	-5136
설을	-5137
▁이중	-5138
▁향상	-5139
▁고령	-5140
▁머리가	-5141
▁저기	-5142
▁동아	-5143
▁반납	-5144
▁다이렉트	-5145
▁스피	-5146
▁세상에	-5147
▁적발	-5148
▁웹	-5149
한다며	-5150
▁달라고	-5151
▁밴드	-5152
▁경제적	-5153
▁근데	-5154
▁멜	-5155
▁채권	-5156
라의	-5157
제와	-5158
▁전문가들은	-5159
▁뒤집	-5160
관에	-5161
▁부사	-5162
▁자료를	-5163
췄다	-5164
힌다	-5165
게임	-5166
이와	-5167
치에	-5168
▁그러고	-5169
▁얻어	-5170
사용	-5171
▁사실은	-5172
▁동해	-5173
뮤니	-5174
▁정확히	-5175
▁반응을	-5176
▁지연	-5177
▁들어왔다	-5178
▁감염	-5179
▁찔	-5180
▁예를	-5181
▁지으며	-5182
▁잔여	-5183
게요	-5184
렸습니다	-5185
▁계속해서	-5186
▁추석	-5187
▁쌀	-5188
▁리더	-5189
▁55	-5190
았습니다	-5191
돌아	-5192
작용	-5193
▁편리	-5194
▁채택	-5195
인에	-5196
▁별도	-5197
▁낮아	-5198
▁마찬가지로	-5199
▁품질	-5200
입니까	-5201
▁포스코	-5202
▁분위기를	-5203
▁찌푸	-5204
하지는	-5205
주지	-5206
▁불을	-5207
▁일도	-5208
받았다	-5209
▁사진을	-5210
▁알려진	-5211
▁무리	-5212
▁동남	-5213
▁밀려	-5214
전은	-5215
▁차가운	-5216
기까지	-5217
▁셋	-5218
▁청약	-5219
▁현금	-5220
▁준다	-5221
▁받으	-5222
▁솔직	-5223
▁한달	-5224
▁부가	-5225
▁얼굴은	-5226
13	-5227
▁44	-5228
▁민족	-5229
▁경비	-5230
▁규모로	-5231
케어	-5232
▁99	-5233
▁중얼거렸다	-5234
▁010	-5235
▁43	-5236
▁가능성도	-5237
▁공약	-5238
▁75	-5239
▁사업에	-5240
습을	-5241
▁그제	-5242
해질	-5243
옵니다	-5244
란히	-5245
▁과학기술	-5246
▁도저히	-5247
▁반려	-5248
▁호흡	-5249
크를	-5250
▁위안	-5251
▁사랑을	-5252
▁운행	-5253
▁나아가	-5254
로의	-5255
마가	-5256
▁할부원금	-5257
신은	-5258
화학	-5259
▁고맙	-5260
▁일각	-5261
▁몰랐	-5262
▁학부모	-5263
▁펴	-5264
▁짐작	-5265
향이	-5266
▁드러났다	-5267
▁느낀	-5268
▁그다	-5269
보며	-5270
▁떨어졌다	-5271
▁빛이	-5272
침을	-5273
▁어차피	-5274
▁나설	-5275
▁평생	-5276
까지도	-5277
27	-5278
▁작업을	-5279
▁닥	-5280
▁솔루	-5281
자동차	-5282
▁그린	-5283
▁눈물이	-5284
▁정신이	-5285
▁영양	-5286
▁충돌	-5287
▁결의	-5288
▁단일	-5289
▁운영하고	-5290
▁조언	-5291
▁받아들이	-5292
▁최신	-5293
개국	-5294
▁초대	-5295
▁최우	-5296
았을	-5297
▁직전	-5298
크가	-5299
▁이곳에	-5300
심한	-5301
형의	-5302
▁00	-5303
▁현장에서	-5304
▁심의	-5305
▁시내	-5306
ro	-5307
▁오랫	-5308
▁연출	-5309
▁대회	-5310
▁미국은	-5311
▁드릴	-5312
▁귀족	-5313
▁지분	-5314
▁웬	-5315
▁세부	-5316
▁일주	-5317
위원회가	-5318
▁중국이	-5319
▁발표된	-5320
▁소프트	-5321
▁받게	-5322
제공	-5323
▁허리를	-5324
▁발급	-5325
▁없다며	-5326
▁끝난	-5327
▁가능하며	-5328
▁그만큼	-5329
린은	-5330
▁적어도	-5331
▁거다	-5332
▁옳	-5333
▁침대	-5334
공개	-5335
평균	-5336
▁남자는	-5337
▁금방	-5338
▁잔뜩	-5339
다듬	-5340
우스	-5341
ile	-5342
▁이들의	-5343
▁일상	-5344
테르	-5345
▁수급	-5346
▁걸음	-5347
▁무엇보다	-5348
▁업무를	-5349
느라	-5350
▁드는	-5351
▁동작	-5352
방에	-5353
▁마침내	-5354
▁나아	-5355
▁위약금	-5356
▁사유	-5357
▁설득	-5358
▁씻	-5359
해지는	-5360
됐던	-5361
위원회를	-5362
노트	-5363
▁이스	-5364
률은	-5365
설팅	-5366
16	-5367
▁따뜻한	-5368
▁있나요	-5369
▁생존	-5370
어졌다	-5371
▁믿을	-5372
▁재빨리	-5373
▁중에서	-5374
▁할아버	-5375
▁장관이	-5376
▁급증	-5377
▁나타냈다	-5378
시와	-5379
▁계산	-5380
면적	-5381
▁지속적인	-5382
▁기가	-5383
▁집에서	-5384
▁협력을	-5385
▁온몸	-5386
▁들어간	-5387
▁진행할	-5388
▁계획이라고	-5389
심으로	-5390
▁일어난	-5391
▁형태로	-5392
▁이웃	-5393
▁가벼	-5394
▁부담이	-5395
▁제공하고	-5396
▁his	-5397
▁가슴을	-5398
▁여부	-5399
▁내에서	-5400
물로	-5401
주세요	-5402
▁임직원	-5403
▁있음을	-5404
▁소요	-5405
된다는	-5406
▁가량	-5407
▁마지막으로	-5408
례를	-5409
▁들었	-5410
▁돌아오	-5411
▁경계	-5412
조로	-5413
▁상당한	-5414
▁붕	-5415
▁일찍	-5416
▁시기	-5417
크의	-5418
▁세상을	-5419
격한	-5420
실까요	-5421
▁능력을	-5422
▁거라고	-5423
▁있을까	-5424
▁맘	-5425
거든요	-5426
▁드루	-5427
km	-5428
수와	-5429
▁둥	-5430
▁찰	-5431
건은	-5432
민이	-5433
▁발휘	-5434
금리	-5435
▁북한에	-5436
▁56	-5437
▁지적이	-5438
▁극복	-5439
▁정부와	-5440
안으로	-5441
▁유기	-5442
▁들려왔다	-5443
영이	-5444
▁47	-5445
▁났	-5446
체는	-5447
▁폼	-5448
만원으로	-5449
▁고마	-5450
연한	-5451
▁훼손	-5452
▁알지	-5453
▁최소화	-5454
▁동생	-5455
▁계좌	-5456
류가	-5457
▁한정	-5458
▁뜬	-5459
▁개막	-5460
▁피의	-5461
▁만남	-5462
▁홍콩	-5463
스레	-5464
▁느끼고	-5465
▁협약	-5466
잡고	-5467
▁피를	-5468
▁율	-5469
▁흩	-5470
▁도발	-5471
▁100%	-5472
특별	-5473
▁총리는	-5474
▁아우	-5475
▁자원	-5476
▁직무	-5477
▁전기차	-5478
▁발생하는	-5479
▁부드러운	-5480
세포	-5481
▁선보인다	-5482
▁경쟁력을	-5483
하기는	-5484
▁성장을	-5485
▁3000	-5486
국민	-5487
어지는	-5488
동에	-5489
▁접촉	-5490
▁기대된다	-5491
으므로	-5492
▁추구	-5493
키로	-5494
▁재개	-5495
▁넣어	-5496
▁노후	-5497
▁응시	-5498
▁그렇다	-5499
▁표정이	-5500
▁영원	-5501
기능	-5502
▁인간이	-5503
▁위에서	-5504
▁피고	-5505
▁노사	-5506
▁st	-5507
▁넘게	-5508
▁춤	-5509
▁서서히	-5510
▁결론	-5511
▁오피스	-5512
▁지하철	-5513
▁저렇게	-5514
▁참여하는	-5515
▁제공할	-5516
▁모습에	-5517
▁모니터	-5518
▁일으키	-5519
브리	-5520
▁허리	-5521
관과	-5522
▁대우	-5523
▁패키	-5524
▁최적	-5525
속에서	-5526
▁넓은	-5527
▁났다	-5528
▁한다면	-5529
하고는	-5530
영업	-5531
▁비즈니스	-5532
소의	-5533
▁밝혔습니다	-5534
리자	-5535
▁캐릭	-5536
▁추진하고	-5537
월에는	-5538
▁어른	-5539
▁적합	-5540
▁강원도	-5541
▁당사	-5542
거죠	-5543
▁판문점	-5544
▁터져	-5545
조가	-5546
▁출석	-5547
▁이명박	-5548
▁내뱉	-5549
▁법원	-5550
▁국방부	-5551
▁남녀	-5552
효과	-5553
▁800	-5554
▁사라져	-5555
렸던	-5556
▁대장	-5557
▁쟁	-5558
▁옛날	-5559
▁치열	-5560
▁폐기	-5561
▁올라가	-5562
▁아이가	-5563
▁사랑하는	-5564
▁소중한	-5565
▁준비를	-5566
체험	-5567
했어	-5568
▁상태로	-5569
▁키워	-5570
▁않는다는	-5571
▁유해	-5572
속으로	-5573
▁PC	-5574
감은	-5575
▁다녀	-5576
▁간의	-5577
▁순식	-5578
▁피해가	-5579
▁이용한	-5580
비아	-5581
▁증정	-5582
▁뒤에서	-5583
▁고정	-5584
있게	-5585
법이	-5586
절을	-5587
▁모색	-5588
▁갑작	-5589
▁했을	-5590
사령	-5591
▁남겨	-5592
점검	-5593
후보	-5594
▁빼앗	-5595
▁아니지만	-5596
▁지금의	-5597
▁오프	-5598
▁그거	-5599
경은	-5600
▁수주	-5601
▁출입	-5602
▁길게	-5603
▁치료를	-5604
댔다	-5605
바이	-5606
26	-5607
일의	-5608
모를	-5609
▁자기가	-5610
▁지상	-5611
▁식사	-5612
공동	-5613
▁행위	-5614
인터	-5615
쪽에서	-5616
▁걸음을	-5617
▁사람도	-5618
▁차라리	-5619
▁구분	-5620
▁2008	-5621
시스	-5622
▁즐거	-5623
▁김동	-5624
▁있으나	-5625
▁무서운	-5626
아니	-5627
▁정규직	-5628
▁확인해	-5629
가격	-5630
프는	-5631
실은	-5632
▁지닌	-5633
▁체포	-5634
▁생겨	-5635
▁없애	-5636
인들은	-5637
▁날이	-5638
권은	-5639
졌다고	-5640
세의	-5641
만원의	-5642
주신	-5643
▁마친	-5644
▁초반	-5645
▁방어	-5646
▁비트코	-5647
자들	-5648
▁여의도	-5649
▁for	-5650
▁조사됐다	-5651
하려면	-5652
▁화를	-5653
▁넥	-5654
▁배제	-5655
종합	-5656
▁여자는	-5657
됐습니다	-5658
▁미술	-5659
▁com	-5660
▁곧바로	-5661
▁회계	-5662
방이	-5663
▁살인	-5664
▁무게	-5665
▁구간	-5666
▁700	-5667
▁보면서	-5668
▁거기에	-5669
▁스위	-5670
▁점도	-5671
조선	-5672
나다	-5673
▁서초	-5674
▁아래로	-5675
▁상태에서	-5676
어로	-5677
ght	-5678
▁무엇이	-5679
▁선생님	-5680
▁진지	-5681
▁리가	-5682
▁참석했다	-5683
▁돋	-5684
▁지역에서	-5685
선언	-5686
▁좀더	-5687
속을	-5688
보기	-5689
센터에서	-5690
▁침해	-5691
가량	-5692
산의	-5693
했는지	-5694
▁대사	-5695
▁말하자	-5696
▁한동안	-5697
원칙	-5698
▁확인됐다	-5699
시민	-5700
▁믿고	-5701
치료	-5702
irect	-5703
▁꿈을	-5704
▁전부터	-5705
▁속도를	-5706
▁별도로	-5707
기획	-5708
▁대학생	-5709
▁없게	-5710
동계올림픽	-5711
▁메이	-5712
▁대부분의	-5713
사이	-5714
▁유입	-5715
▁끝까지	-5716
▁불어	-5717
▁감히	-5718
▁찾을	-5719
▁가시	-5720
지않	-5721
▁다음날	-5722
▁우리를	-5723
▁정착	-5724
▁말아	-5725
건강	-5726
▁의사를	-5727
▁학생들이	-5728
▁한가	-5729
▁김정	-5730
등급	-5731
▁오랫동안	-5732
▁주재	-5733
건에	-5734
▁다리를	-5735
비의	-5736
▁중심의	-5737
▁리스크	-5738
▁사나	-5739
▁괜찮아	-5740
▁질병	-5741
줬다	-5742
▁경찰이	-5743
▁이해할	-5744
▁나가는	-5745
▁하시	-5746
▁기변	-5747
▁축하	-5748
▁있다가	-5749
▁하늘을	-5750
▁가면	-5751
▁급히	-5752
르르	-5753
억달러	-5754
장도	-5755
▁미디어	-5756
▁어렵다	-5757
▁제시했다	-5758
▁바란다고	-5759
▁겉	-5760
▁하니	-5761
▁라이트	-5762
▁위기	-5763
▁방해	-5764
▁이탈리아	-5765
▁그려	-5766
▁얼른	-5767
▁그간	-5768
▁아니라는	-5769
물에	-5770
평화	-5771
▁손님	-5772
▁과도	-5773
▁남북정상회담	-5774
▁구청	-5775
▁발의	-5776
▁조각	-5777
케이션	-5778
▁대답을	-5779
▁놓은	-5780
목이	-5781
▁후보가	-5782
▁유니	-5783
▁멤	-5784
▁상세	-5785
▁법적	-5786
상승	-5787
▁일대	-5788
▁벼	-5789
연이	-5790
때문에	-5791
▁대해선	-5792
▁토대로	-5793
▁유일한	-5794
▁물리	-5795
▁한층	-5796
▁당신을	-5797
▁i	-5798
▁없어요	-5799
▁이상을	-5800
▁끝내	-5801
▁특징이다	-5802
▁사업은	-5803
▁상처를	-5804
형은	-5805
통화	-5806
▁드루킹	-5807
▁올리	-5808
▁제정	-5809
▁알려져	-5810
일과	-5811
▁앙	-5812
▁다리	-5813
▁데다	-5814
주와	-5815
▁안팎	-5816
매를	-5817
▁바라보는	-5818
▁츃	-5819
호선	-5820
▁커뮤니	-5821
▁정지	-5822
▁않을까	-5823
▁죽여	-5824
▁닭	-5825
▁본격적으로	-5826
▁성남	-5827
▁참여한	-5828
▁미니	-5829
▁손해	-5830
▁비교적	-5831
▁악화	-5832
▁촛	-5833
▁제발	-5834
▁확인됩니다	-5835
▁붙어	-5836
실한	-5837
▁중국은	-5838
탄을	-5839
▁단단	-5840
▁후속	-5841
23	-5842
▁선진	-5843
방의	-5844
▁담아	-5845
▁정체	-5846
em	-5847
▁짙	-5848
치기	-5849
▁녀석을	-5850
▁면세	-5851
▁59	-5852
살이	-5853
▁월드	-5854
MW	-5855
▁보관	-5856
▁진행되는	-5857
▁불가피	-5858
▁당분간	-5859
센터를	-5860
면이	-5861
▁역량을	-5862
담을	-5863
▁안고	-5864
감에	-5865
악한	-5866
씨에게	-5867
▁취득	-5868
▁말투	-5869
▁분이	-5870
▁기획재	-5871
전한	-5872
▁수준이다	-5873
▁펜	-5874
▁만났	-5875
▁꽉	-5876
▁음식을	-5877
▁들어올	-5878
▁값	-5879
▁묻는	-5880
▁양성	-5881
▁128	-5882
▁체크	-5883
▁연구개발	-5884
▁특성	-5885
당에	-5886
▁흥분	-5887
▁면접	-5888
▁현황	-5889
▁마디	-5890
▁아니라고	-5891
소리를	-5892
▁부상	-5893
▁대처	-5894
스테	-5895
만명	-5896
▁미칠	-5897
즈는	-5898
가능한	-5899
▁순식간에	-5900
▁생각할	-5901
자마자	-5902
었다고	-5903
▁현재까지	-5904
▁단순히	-5905
▁소리쳤다	-5906
▁잡았다	-5907
장에게	-5908
▁공격을	-5909
▁쟞	-5910
▁철도	-5911
▁드립니다	-5912
네시아	-5913
▁끊임	-5914
▁49	-5915
▁시즌	-5916
▁개발한	-5917
▁도는	-5918
▁버리고	-5919
이었고	-5920
▁촉구했다	-5921
십니다	-5922
▁쳐다보았다	-5923
▁휩	-5924
▁올린	-5925
▁도심	-5926
▁상업	-5927
▁입에	-5928
▁할인금액	-5929
해지고	-5930
계층	-5931
▁마치고	-5932
체계	-5933
▁지방자치	-5934
▁현재의	-5935
▁살려	-5936
▁너를	-5937
셔도	-5938
▁거친	-5939
▁256	-5940
드에	-5941
▁동종	-5942
▁연합뉴스	-5943
▁총괄	-5944
져서	-5945
▁무선	-5946
▁봐야	-5947
▁부족한	-5948
▁범행	-5949
▁원전	-5950
▁발생할	-5951
▁어딘	-5952
▁안내해	-5953
▁짓을	-5954
▁앞장	-5955
▁지원한다	-5956
▁근육	-5957
ter	-5958
단과	-5959
여행	-5960
▁남자의	-5961
▁끓	-5962
▁합격	-5963
공이	-5964
▁미래를	-5965
▁살해	-5966
▁람	-5967
▁데이	-5968
▁매도	-5969
▁놓여	-5970
거리고	-5971
▁EU	-5972
▁진행된	-5973
▁시작된	-5974
▁SM	-5975
▁중장	-5976
▁120	-5977
함과	-5978
▁댜	-5979
단으로	-5980
▁수백	-5981
▁대통령을	-5982
▁김성	-5983
▁가해	-5984
등록	-5985
▁들어온	-5986
▁산림	-5987
이에요	-5988
▁웃고	-5989
결을	-5990
29	-5991
영의	-5992
▁거칠	-5993
▁적폐	-5994
▁구속영	-5995
▁어떠한	-5996
▁검찰에	-5997
▁험	-5998
목으로	-5999
▁낫	-6000
▁옆에서	-6001
밀한	-6002
▁황금	-6003
▁불이	-6004
ol	-6005
스에서	-6006
▁하겠습니다	-6007
면으로	-6008
▁기본료	-6009
현은	-6010
학적	-6011
전화	-6012
▁간신	-6013
하듯	-6014
▁안정적인	-6015
▁재고가	-6016
▁있었습니다	-6017
▁지니	-6018
▁관계가	-6019
▁전주	-6020
▁핵실험	-6021
에너지	-6022
▁뚜렷	-6023
▁벗어	-6024
령이	-6025
▁사이로	-6026
▁내다봤다	-6027
▁이벤트를	-6028
억원에	-6029
▁NH	-6030
▁시리아	-6031
▁삐	-6032
시로	-6033
▁글쓰	-6034
▁어머	-6035
▁관계자	-6036
▁참석해	-6037
▁제한하고	-6038
▁삼성전자는	-6039
▁무사	-6040
▁고수	-6041
▁아니냐는	-6042
▁회의를	-6043
▁누군가	-6044
▁소형	-6045
▁채로	-6046
드리고	-6047
▁상승했다	-6048
▁알았다	-6049
▁사건이	-6050
▁문제로	-6051
▁점포	-6052
▁변화가	-6053
▁웃어	-6054
▁임원	-6055
▁유명한	-6056
▁폭행	-6057
공장	-6058
▁핏	-6059
▁경우도	-6060
파이	-6061
▁보좌	-6062
▁비정	-6063
감한	-6064
▁무관	-6065
▁켜	-6066
▁짝	-6067
▁위원장이	-6068
▁입학	-6069
미널	-6070
져야	-6071
대행	-6072
▁아파	-6073
▁안전한	-6074
▁성폭력	-6075
지어	-6076
용품	-6077
▁오직	-6078
▁84	-6079
치로	-6080
보지	-6081
▁추진할	-6082
▁즉각	-6083
당에서	-6084
▁신체	-6085
라서	-6086
▁주시면	-6087
▁공천	-6088
▁것일까	-6089
▁가격은	-6090
▁무섭	-6091
▁할지	-6092
았다고	-6093
▁귀를	-6094
년도	-6095
▁앉았다	-6096
플러	-6097
▁슈퍼	-6098
▁다물	-6099
ith	-6100
화한	-6101
▁창의	-6102
▁머릿	-6103
▁입에서	-6104
▁2009	-6105
▁고향	-6106
▁보급	-6107
성한	-6108
▁드라	-6109
▁had	-6110
▁소식	-6111
▁않지만	-6112
▁칸	-6113
▁프로모	-6114
▁다수	-6115
▁양측	-6116
위원장은	-6117
▁막아	-6118
▁하나를	-6119
겁게	-6120
▁칼을	-6121
▁40%	-6122
▁사이버	-6123
▁카이	-6124
석에	-6125
▁명을	-6126
▁용서	-6127
▁유출	-6128
▁잠재	-6129
▁충전	-6130
▁기준을	-6131
▁보증	-6132
▁지금도	-6133
법은	-6134
▁있다면서	-6135
▁암호	-6136
▁언젠	-6137
▁기대하고	-6138
▁부분을	-6139
▁간호	-6140
▁일어났다	-6141
▁신용카드	-6142
▁덤	-6143
▁짚	-6144
▁분야의	-6145
▁엎	-6146
▁문이	-6147
▁확충	-6148
으려	-6149
▁옆으로	-6150
▁as	-6151
▁쓰레	-6152
▁가라앉	-6153
고한	-6154
▁개설	-6155
▁경쟁력	-6156
▁드디어	-6157
▁질문을	-6158
이한	-6159
▁소셜	-6160
SI	-6161
▁통제	-6162
▁시리즈	-6163
▁화성	-6164
▁태양광	-6165
렸을	-6166
▁비중이	-6167
평양	-6168
재가	-6169
▁신의	-6170
▁197	-6171
▁차지했다	-6172
도미사일	-6173
▁동맹	-6174
▁건조	-6175
▁사람들에게	-6176
세기	-6177
▁가능할	-6178
▁적지	-6179
▁전략을	-6180
▁어려워	-6181
▁목표주	-6182
로드	-6183
▁물류	-6184
▁경우는	-6185
료가	-6186
▁높여	-6187
▁이자	-6188
▁수집	-6189
▁매입	-6190
합의	-6191
▁너도	-6192
름을	-6193
▁말했	-6194
▁아베	-6195
▁둘째	-6196
▁예전	-6197
▁일시불	-6198
▁인도네시아	-6199
▁영혼	-6200
▁둘러싼	-6201
▁늘고	-6202
▁주행	-6203
시장에서	-6204
▁요금제로	-6205
▁모습이다	-6206
▁해당하는	-6207
개선	-6208
싱턴	-6209
▁요금제는	-6210
▁무렵	-6211
주민	-6212
▁감시	-6213
지수	-6214
▁보유하고	-6215
▁통보	-6216
▁조절	-6217
▁말까지	-6218
▁제휴	-6219
▁동계올림픽	-6220
▁높였다	-6221
▁않다는	-6222
▁저렴한	-6223
▁했다는	-6224
▁선출	-6225
▁하나도	-6226
▁일본의	-6227
▁행복한	-6228
▁피곤	-6229
것은	-6230
물질	-6231
▁인생	-6232
▁해운	-6233
프를	-6234
▁승인	-6235
관계를	-6236
관련	-6237
▁대하여	-6238
▁회장의	-6239
▁어르	-6240
▁불꽃	-6241
▁아버지가	-6242
▁촛불	-6243
봉사	-6244
▁측정	-6245
▁진행했다	-6246
▁뿜	-6247
하라는	-6248
조는	-6249
▁간신히	-6250
위와	-6251
▁쏘아	-6252
▁출고	-6253
▁굽	-6254
▁거절	-6255
▁층	-6256
▁아이들이	-6257
▁성추	-6258
▁수렴	-6259
▁2007	-6260
▁말씀이	-6261
▁팽	-6262
▁잠을	-6263
▁보여주는	-6264
▁기존의	-6265
▁평창동계올림픽	-6266
졌던	-6267
▁깨닫	-6268
리트	-6269
▁풀이된다	-6270
▁스테	-6271
▁봤다	-6272
▁닮	-6273
▁당한	-6274
▁핑	-6275
▁심한	-6276
▁바랍니다	-6277
▁아쉬	-6278
▁기어	-6279
걸음	-6280
▁너의	-6281
▁신선	-6282
▁25%	-6283
▁커지고	-6284
▁반박	-6285
▁나름	-6286
드와	-6287
▁분기	-6288
▁사퇴	-6289
사랑	-6290
▁미치는	-6291
▁이름은	-6292
▁이마트	-6293
▁검찰이	-6294
▁나오지	-6295
▁하락했다	-6296
▁부분은	-6297
소와	-6298
▁구경	-6299
▁코리아	-6300
▁원인	-6301
▁흘러나	-6302
소한	-6303
▁목적으로	-6304
▁공론	-6305
▁때부터	-6306
▁대한항공	-6307
▁세월호	-6308
투표	-6309
▁고교	-6310
부탁드립니다	-6311
▁호주	-6312
▁웃는	-6313
▁시간에	-6314
루는	-6315
▁다음에	-6316
▁정도는	-6317
▁의아	-6318
르기	-6319
서도	-6320
통상	-6321
▁사이에서	-6322
청에	-6323
▁였다	-6324
검사	-6325
▁곽	-6326
그리고	-6327
다운	-6328
▁의견이	-6329
▁증권사	-6330
▁갈아	-6331
▁베이징	-6332
▁이어지는	-6333
▁창조	-6334
▁뿌리	-6335
▁착수	-6336
▁자문	-6337
▁않았고	-6338
▁54	-6339
▁상용	-6340
석의	-6341
주도	-6342
먹을	-6343
▁소용	-6344
▁의뢰	-6345
▁테마	-6346
수산	-6347
▁난민	-6348
▁성적	-6349
▁CEO	-6350
▁부당	-6351
▁느낌을	-6352
셨습니다	-6353
▁이동통신	-6354
▁발전을	-6355
▁Direct	-6356
그룹은	-6357
▁조그	-6358
▁계란	-6359
▁드론	-6360
▁오프라인	-6361
이었습니다	-6362
▁있었기	-6363
▁누적	-6364
니어	-6365
▁상환	-6366
▁비틀	-6367
▁필리	-6368
회와	-6369
▁겨냥	-6370
▁KBS	-6371
니가	-6372
가며	-6373
포럼	-6374
▁멍하니	-6375
▁살피	-6376
부처	-6377
▁교사	-6378
▁분위기가	-6379
▁Q	-6380
▁돈이	-6381
▁확대해	-6382
▁능력	-6383
▁장을	-6384
만으로도	-6385
▁마르	-6386
▁협업	-6387
▁발달	-6388
▁내달	-6389
▁독자	-6390
산에	-6391
▁충분한	-6392
분께	-6393
▁신청을	-6394
▁서울대	-6395
▁생기	-6396
미터	-6397
▁굳이	-6398
▁어려울	-6399
르의	-6400
▁통계	-6401
▁고등학교	-6402
▁결과에	-6403
▁가공	-6404
▁제도를	-6405
로서는	-6406
▁도내	-6407
▁53	-6408
▁디스플레이	-6409
▁흙	-6410
▁예정이라고	-6411
놨다	-6412
▁BMW	-6413
▁다가가	-6414
백화점	-6415
야만	-6416
하를	-6417
왔던	-6418
▁터뜨	-6419
▁공무	-6420
안과	-6421
▁뺨	-6422
디아	-6423
▁금호	-6424
▁그다지	-6425
▁몸은	-6426
화하고	-6427
▁들어가는	-6428
▁마이	-6429
▁번쩍	-6430
▁못하게	-6431
▁문화를	-6432
다보니	-6433
▁멸	-6434
나고	-6435
▁원활	-6436
▁가르쳐	-6437
BS	-6438
100	-6439
▁신임	-6440
▁우주	-6441
▁빠진	-6442
양을	-6443
▁세이	-6444
셔츠	-6445
▁연방	-6446
공헌	-6447
▁듣는	-6448
부장	-6449
▁적용해	-6450
스키	-6451
▁일자리를	-6452
▁사업이	-6453
연의	-6454
▁하려고	-6455
가와	-6456
실의	-6457
▁철저히	-6458
라우드	-6459
서울	-6460
▁서둘러	-6461
▁인터뷰에서	-6462
▁나선다	-6463
화하는	-6464
센터는	-6465
▁원장은	-6466
▁합병	-6467
▁하겠다	-6468
▁테러	-6469
▁전망된다	-6470
▁안되는	-6471
리티	-6472
2000	-6473
▁이어지고	-6474
▁곤란	-6475
▁내내	-6476
▁좌우	-6477
미한	-6478
▁바른정당	-6479
▁배를	-6480
▁시선이	-6481
되자	-6482
듯한	-6483
▁미래에	-6484
▁진행해	-6485
수준	-6486
렬한	-6487
▁이르는	-6488
▁테니까	-6489
▁관여	-6490
▁순차	-6491
▁않는다고	-6492
▁캐릭터	-6493
로소	-6494
▁114	-6495
▁램	-6496
▁개발을	-6497
▁활용할	-6498
망이	-6499
▁요리	-6500
▁프레	-6501
▁일제히	-6502
▁잘못된	-6503
au	-6504
명했다	-6505
▁물이	-6506
▁개선을	-6507
해양	-6508
▁감각	-6509
▁외무	-6510
▁동일한	-6511
▁지표	-6512
▁모습으로	-6513
이지를	-6514
▁주한	-6515
▁젠장	-6516
▁건네	-6517
▁요구했다	-6518
▁막을	-6519
▁어지	-6520
▁줄었다	-6521
▁상무	-6522
▁부진	-6523
▁입법	-6524
▁마구	-6525
▁반짝	-6526
성으로	-6527
▁그녀에게	-6528
▁떨어지는	-6529
▁터키	-6530
▁나간	-6531
▁건강한	-6532
▁겹	-6533
▁가슴에	-6534
▁보복	-6535
중공업	-6536
라엘	-6537
▁무림	-6538
▁허위	-6539
대리	-6540
▁얻을	-6541
▁재배	-6542
▁돘	-6543
▁쥈	-6544
▁참여해	-6545
▁신입	-6546
▁실적을	-6547
▁넷	-6548
센서	-6549
전거	-6550
▁띠	-6551
▁앤	-6552
▁is	-6553
▁신음	-6554
만달러	-6555
▁데이터를	-6556
산은	-6557
▁접속	-6558
▁링	-6559
▁진정한	-6560
▁장착	-6561
▁사로	-6562
▁거냐	-6563
▁자고	-6564
▁거짓말	-6565
▁공간을	-6566
▁몬	-6567
▁놔	-6568
▁숙박	-6569
▁떴	-6570
▁찾은	-6571
▁의외	-6572
마켓	-6573
▁제주도	-6574
▁골프	-6575
▁귓	-6576
▁금융감독	-6577
▁모두들	-6578
▁탓에	-6579
▁컨설팅	-6580
▁불쾌	-6581
르가	-6582
책임	-6583
판매	-6584
▁가자	-6585
평을	-6586
▁처음이다	-6587
식에서	-6588
우며	-6589
▁메시지를	-6590
▁진보	-6591
시간을	-6592
▁클래	-6593
▁오지	-6594
어버린	-6595
파의	-6596
▁연령	-6597
▁여자의	-6598
▁섭취	-6599
경쟁	-6600
순환	-6601
▁전원	-6602
▁들렸다	-6603
▁훔	-6604
러진	-6605
내며	-6606
ess	-6607
▁캐나다	-6608
▁갖추	-6609
▁배당	-6610
현이	-6611
▁입증	-6612
▁여성의	-6613
▁2022	-6614
▁하나는	-6615
▁자신은	-6616
▁단순한	-6617
▁사기	-6618
▁머리카락	-6619
▁기술이	-6620
▁수소	-6621
il	-6622
▁with	-6623
주년을	-6624
▁망설	-6625
문제	-6626
▁변호사	-6627
▁가려	-6628
▁무엇인가	-6629
▁대상이	-6630
▁살펴보면	-6631
▁환경을	-6632
▁지원할	-6633
▁요구하는	-6634
▁경우에	-6635
▁마련했다	-6636
차로	-6637
▁관찰	-6638
▁석유	-6639
▁트위	-6640
▁의원의	-6641
▁눈은	-6642
▁푹	-6643
▁똑같은	-6644
▁세대	-6645
의가	-6646
▁물건	-6647
▁아픈	-6648
됐다는	-6649
▁워낙	-6650
▁출판	-6651
▁않았다고	-6652
▁치고	-6653
▁이뤄진	-6654
▁되기	-6655
▁대외	-6656
▁평범	-6657
▁몹시	-6658
재판	-6659
▁것이며	-6660
됐지만	-6661
겠군	-6662
▁더해	-6663
▁최소한	-6664
▁막기	-6665
식의	-6666
▁판단했다	-6667
▁연극	-6668
스티벌	-6669
친다	-6670
▁안타깝	-6671
ce	-6672
▁신기	-6673
▁마련해	-6674
▁고객이	-6675
▁지역을	-6676
▁않기	-6677
▁향했다	-6678
▁압수수	-6679
라니	-6680
▁일방	-6681
▁탄생	-6682
▁쓰지	-6683
▁파리	-6684
▁공주	-6685
▁하긴	-6686
▁어이	-6687
▁느끼는	-6688
▁오피스텔	-6689
▁높이고	-6690
▁콩	-6691
시설을	-6692
▁인용	-6693
▁체육	-6694
▁강경	-6695
▁고통을	-6696
서로	-6697
종은	-6698
▁생활을	-6699
▁큙	-6700
▁글쓰기를	-6701
200	-6702
▁무료로	-6703
법상	-6704
▁확인하고	-6705
리라고	-6706
▁산하	-6707
▁거래를	-6708
▁나한테	-6709
재는	-6710
▁깃	-6711
졌다는	-6712
▁털어	-6713
▁강화하고	-6714
▁기쁨	-6715
▁워싱턴	-6716
▁잃고	-6717
▁마족	-6718
▁행사는	-6719
▁끌어올	-6720
하셨기	-6721
목의	-6722
▁건의	-6723
ave	-6724
림이	-6725
▁크고	-6726
▁심장	-6727
▁대꾸	-6728
됐으며	-6729
뷰티	-6730
▁저장	-6731
▁없는데	-6732
▁겪고	-6733
▁꺾	-6734
▁들어갈	-6735
▁처음부터	-6736
▁되도록	-6737
비와	-6738
양의	-6739
▁투기	-6740
구매	-6741
위원회의	-6742
▁공략	-6743
▁해보	-6744
▁최근에는	-6745
▁메모	-6746
▁생겼	-6747
▁감소했다	-6748
▁참여할	-6749
▁다름	-6750
▁브리핑	-6751
▁점은	-6752
▁아닐까	-6753
▁생각하지	-6754
▁사령	-6755
웨이	-6756
▁유지하고	-6757
▁정령	-6758
▁권력	-6759
▁동네	-6760
▁계기가	-6761
즈를	-6762
▁움켜	-6763
보증	-6764
체에	-6765
▁구멍	-6766
▁매출이	-6767
거지	-6768
▁들어와	-6769
▁말했습니다	-6770
▁눈물	-6771
▁노동당	-6772
감과	-6773
▁노무	-6774
▁57	-6775
추진	-6776
▁가맹점	-6777
▁한국과	-6778
▁가전	-6779
▁남부	-6780
▁속도	-6781
▁국민이	-6782
▁내며	-6783
어지고	-6784
▁앞둔	-6785
▁던져	-6786
▁초등학교	-6787
▁메르	-6788
▁한중	-6789
▁기존에	-6790
▁주소	-6791
▁면제	-6792
스카	-6793
▁70%	-6794
▁비용을	-6795
▁뽑아	-6796
▁비교해	-6797
▁부르는	-6798
▁호남	-6799
▁보였	-6800
▁즐거운	-6801
리다	-6802
▁교수가	-6803
▁맡고	-6804
▁이어졌다	-6805
▁충족	-6806
▁치매	-6807
▁알겠습니다	-6808
▁포함된	-6809
원들이	-6810
▁담배를	-6811
▁어두운	-6812
▁당연한	-6813
▁시간은	-6814
▁춘천	-6815
▁두려워	-6816
▁운영원칙	-6817
내가	-6818
▁사회공헌	-6819
여개	-6820
▁속삭	-6821
▁입장이다	-6822
▁차세대	-6823
op	-6824
▁주기	-6825
▁동굴	-6826
▁세탁	-6827
▁이전에	-6828
▁말씀을	-6829
▁오염	-6830
▁사고가	-6831
▁이뤄질	-6832
28	-6833
▁잡은	-6834
▁소개했다	-6835
▁유력	-6836
oc	-6837
▁펀드	-6838
▁동남아	-6839
▁비명을	-6840
▁협조	-6841
▁제한되었습니다	-6842
▁작성하셨기	-6843
▁모으	-6844
▁종이	-6845
▁운영원칙에서	-6846
▁두드	-6847
▁몰랐다	-6848
▁김경	-6849
▁놈의	-6850
▁없기	-6851
▁그래요	-6852
▁북미정상회담	-6853
타운	-6854
▁흐르는	-6855
▁위하여	-6856
마에	-6857
쪽을	-6858
▁아름답	-6859
▁스튜	-6860
▁180	-6861
▁이대로	-6862
▁원자	-6863
▁정확하게	-6864
▁무릎을	-6865
▁중구	-6866
▁41	-6867
▁줄어든	-6868
▁파고	-6869
▁배가	-6870
판에	-6871
▁가깝	-6872
화할	-6873
적한	-6874
주년	-6875
▁다짐	-6876
으로도	-6877
곳을	-6878
▁열렸다	-6879
▁동영	-6880
▁노하우	-6881
로그	-6882
▁규모는	-6883
▁갖춰	-6884
▁강화를	-6885
▁필요하다는	-6886
▁쉬운	-6887
▁인지	-6888
▁활성화를	-6889
▁an	-6890
▁농협	-6891
조직	-6892
트와	-6893
▁사용한	-6894
▁그대	-6895
▁업무협	-6896
▁뮤지	-6897
인도	-6898
▁골드	-6899
▁부장	-6900
▁공정거래	-6901
▁가벼운	-6902
▁않았습니다	-6903
▁부드럽게	-6904
▁부채	-6905
서비스를	-6906
▁있나	-6907
▁글쎄	-6908
▁니가	-6909
▁이럴	-6910
▁달한다	-6911
▁잊지	-6912
▁진상	-6913
▁아버지는	-6914
▁서해	-6915
시한	-6916
민주	-6917
▁색상	-6918
▁그렇습니다	-6919
▁이용하는	-6920
어질	-6921
▁폼페	-6922
▁예산을	-6923
▁향한	-6924
▁긍정적인	-6925
▁부적	-6926
▁편의점	-6927
▁바깥	-6928
▁로드	-6929
▁제품은	-6930
▁점유	-6931
▁무상	-6932
위원은	-6933
▁기간이	-6934
▁신제품	-6935
oT	-6936
▁괴롭	-6937
▁누구도	-6938
▁높게	-6939
▁처럼	-6940
▁일부러	-6941
관으로	-6942
▁85	-6943
▁나타났	-6944
능력	-6945
▁58	-6946
비로	-6947
▁세금	-6948
▁셰	-6949
조의	-6950
▁선정된	-6951
▁준공	-6952
▁진행됐다	-6953
▁딴	-6954
▁퇴직	-6955
▁끔	-6956
▁입찰	-6957
▁물고	-6958
▁68	-6959
▁연주	-6960
할수	-6961
▁공통	-6962
▁근로자	-6963
▁눈앞에	-6964
▁상태를	-6965
▁부대	-6966
▁했으나	-6967
▁않다고	-6968
▁시상	-6969
▁반대로	-6970
후의	-6971
았는데	-6972
▁담겨	-6973
▁조달	-6974
대문	-6975
▁확대를	-6976
▁시정	-6977
▁군산	-6978
▁공동으로	-6979
▁분쟁	-6980
▁찬성	-6981
항을	-6982
었지	-6983
▁핵무	-6984
베이	-6985
▁예고	-6986
▁250	-6987
▁응원	-6988
▁려	-6989
▁제고	-6990
▁되나요	-6991
님께서는	-6992
▁종로	-6993
▁일환	-6994
▁포럼	-6995
층에	-6996
▁방으로	-6997
▁최초의	-6998
▁자연스럽게	-6999
심은	-7000
▁객관	-7001
GM	-7002
인터넷	-7003
▁도달	-7004
▁융합	-7005
▁영향으로	-7006
▁방법은	-7007
▁보냈다	-7008
내기	-7009
▁비정규직	-7010
태를	-7011
▁이렇	-7012
▁사우	-7013
▁속도로	-7014
▁애초	-7015
▁취급	-7016
▁그야말로	-7017
연은	-7018
▁플레이	-7019
▁선보인	-7020
계는	-7021
▁줄어들	-7022
▁훌륭한	-7023
▁도시재생	-7024
장인	-7025
▁불거	-7026
▁엇	-7027
객이	-7028
▁내외	-7029
라구	-7030
▁쪼	-7031
▁LTE	-7032
▁별도의	-7033
▁감정을	-7034
▁할까	-7035
▁곁에	-7036
▁가질	-7037
▁농촌	-7038
▁답답	-7039
▁엘프	-7040
▁전공	-7041
▁있었다고	-7042
▁일하는	-7043
▁밝은	-7044
▁일로	-7045
▁해지	-7046
▁풍부한	-7047
▁용인	-7048
▁청주	-7049
▁잠이	-7050
▁높이는	-7051
▁신경을	-7052
▁떠올랐다	-7053
▁솔직히	-7054
▁역량	-7055
바람	-7056
아를	-7057
▁혀를	-7058
전으로	-7059
▁어디로	-7060
대고	-7061
다이	-7062
▁부지	-7063
▁앞을	-7064
▁이스라엘	-7065
▁창작	-7066
▁진행될	-7067
▁둘이	-7068
▁그들에게	-7069
▁용산	-7070
버려	-7071
▁논의를	-7072
▁울려	-7073
▁정황	-7074
▁조만	-7075
▁증명	-7076
▁정식	-7077
▁67	-7078
▁추진하는	-7079
▁전형	-7080
▁중도	-7081
의료	-7082
▁늙은	-7083
▁부산시	-7084
만여	-7085
▁건지	-7086
▁부작용	-7087
▁다행히	-7088
▁자기의	-7089
▁청와대는	-7090
▁스카	-7091
▁식사를	-7092
▁유발	-7093
▁됐다고	-7094
▁걸린	-7095
▁담고	-7096
▁배달	-7097
차게	-7098
사회의	-7099
▁일정을	-7100
▁자살	-7101
▁중고	-7102
▁허공	-7103
▁귀여	-7104
▁꽂	-7105
▁멈춰	-7106
▁방식을	-7107
가스	-7108
짜리	-7109
▁놈은	-7110
▁에스	-7111
▁나눔	-7112
내지	-7113
왕의	-7114
나갈	-7115
▁이모	-7116
▁존중	-7117
▁세계적인	-7118
▁조심스럽게	-7119
계획을	-7120
▁오고	-7121
▁검출	-7122
▁대거	-7123
▁개인정보	-7124
▁균형	-7125
▁높았다	-7126
▁쓰다듬	-7127
▁장소	-7128
▁하겠다고	-7129
▁피로	-7130
▁벌금	-7131
▁고용노동	-7132
▁전세계	-7133
▁갖추고	-7134
▁불확	-7135
▁국내에서	-7136
▁필리핀	-7137
▁br	-7138
조리	-7139
▁마스터	-7140
▁김해	-7141
▁격려	-7142
랗게	-7143
것으로	-7144
천만	-7145
있어	-7146
펀드	-7147
▁동참	-7148
▁완전한	-7149
철도	-7150
등을	-7151
하하	-7152
담당	-7153
에겐	-7154
▁맞지	-7155
과도	-7156
▁시점	-7157
처를	-7158
▁경험이	-7159
▁남의	-7160
구로	-7161
악의	-7162
▁이기	-7163
▁택시	-7164
▁마음으로	-7165
▁신속하게	-7166
▁콘텐츠를	-7167
▁땅에	-7168
▁응급	-7169
▁듀	-7170
un	-7171
▁읽어	-7172
▁릟	-7173
▁목표를	-7174
▁느껴졌다	-7175
▁뭉	-7176
▁참으로	-7177
▁날카로운	-7178
▁중복	-7179
▁이번이	-7180
▁다운	-7181
밀히	-7182
▁다니는	-7183
▁아니었	-7184
방으로	-7185
▁않겠	-7186
스러워	-7187
▁성인	-7188
펙트	-7189
▁RD	-7190
주시면	-7191
▁평창올림픽	-7192
▁야당	-7193
▁고위급	-7194
▁대충	-7195
▁갸	-7196
▁부터	-7197
▁그나마	-7198
▁득	-7199
문학	-7200
▁없도록	-7201
▁대단한	-7202
▁얻은	-7203
▁제재를	-7204
▁짓고	-7205
▁못했던	-7206
▁엉덩	-7207
▁모래	-7208
▁고도	-7209
▁씨의	-7210
▁지는	-7211
▁기뻐	-7212
▁미만	-7213
께요	-7214
크로	-7215
▁레드	-7216
유를	-7217
▁실질적인	-7218
▁대만	-7219
▁맡은	-7220
사이트	-7221
▁못했	-7222
▁가스	-7223
나와	-7224
▁갈수록	-7225
▁훈	-7226
▁주머니	-7227
▁쳤다	-7228
▁공중	-7229
으려고	-7230
▁모자	-7231
곳에	-7232
선에서	-7233
내용	-7234
▁들지	-7235
▁재판에	-7236
▁이야기가	-7237
▁넣고	-7238
놈이	-7239
결제	-7240
▁수면	-7241
운드	-7242
▁동기	-7243
▁쫓아	-7244
▁용병	-7245
▁김현	-7246
▁하향	-7247
▁늘어날	-7248
▁귀찮	-7249
▁생각도	-7250
▁사전에	-7251
▁보건복지	-7252
▁만들어진	-7253
▁잃은	-7254
▁여겨	-7255
가에서	-7256
심사	-7257
▁맞게	-7258
풀이	-7259
서에서	-7260
▁가치가	-7261
▁취재	-7262
시코	-7263
▁물질	-7264
제약	-7265
▁톓	-7266
▁끊임없이	-7267
▁걸까	-7268
차에	-7269
▁아프리카	-7270
지다	-7271
▁세미	-7272
▁돌입	-7273
▁이상으로	-7274
▁MBC	-7275
3000	-7276
▁피식	-7277
으시	-7278
▁자신들의	-7279
▁차이	-7280
트에	-7281
LED	-7282
배를	-7283
양이	-7284
▁사물	-7285
▁모르지만	-7286
▁분할	-7287
▁시중	-7288
▁이사회	-7289
▁공개했다	-7290
▁마쳤다	-7291
역이	-7292
위원장이	-7293
▁소식을	-7294
▁진료	-7295
▁항소	-7296
▁at	-7297
검을	-7298
이라니	-7299
▁돌아온	-7300
▁해상	-7301
준비	-7302
니저	-7303
만원에	-7304
▁바른미래당	-7305
▁획득	-7306
▁출산	-7307
▁고속도로	-7308
▁못한다	-7309
▁이론	-7310
▁없음	-7311
▁루시	-7312
▁우울	-7313
었다는	-7314
▁시급	-7315
권과	-7316
▁실종	-7317
▁유사	-7318
▁이봐	-7319
▁같다고	-7320
▁해수	-7321
▁긁	-7322
포를	-7323
▁개성	-7324
행위	-7325
▁기업에	-7326
▁단속	-7327
▁사례가	-7328
▁것이오	-7329
파가	-7330
▁신중	-7331
▁시작한다	-7332
타워	-7333
▁진행하는	-7334
▁물건을	-7335
▁수험	-7336
▁편성	-7337
▁간다	-7338
▁재활	-7339
▁손바닥	-7340
▁모니터링	-7341
▁제조업	-7342
sp	-7343
▁지원하고	-7344
▁강의	-7345
▁산업통상	-7346
▁움직이는	-7347
▁얻고	-7348
▁900	-7349
▁빵	-7350
▁찾고	-7351
▁거두	-7352
▁뇌물	-7353
층의	-7354
▁접어	-7355
방안을	-7356
▁문학	-7357
▁허락	-7358
bo	-7359
▁배려	-7360
가서	-7361
▁갤럭시노트	-7362
▁탑승	-7363
▁씹	-7364
그라	-7365
▁개발에	-7366
▁봺	-7367
시켰	-7368
창업	-7369
▁외교부	-7370
손을	-7371
▁멘	-7372
우를	-7373
▁클릭	-7374
▁조만간	-7375
▁유의	-7376
더군요	-7377
▁곰	-7378
오를	-7379
기금	-7380
▁지출	-7381
▁말하지	-7382
▁정도가	-7383
▁빌어	-7384
▁억지로	-7385
▁영상을	-7386
300	-7387
님께서	-7388
▁GM	-7389
▁실버	-7390
▁키스	-7391
지주	-7392
기록	-7393
걸로	-7394
줘야	-7395
▁나쁘	-7396
희는	-7397
레이드	-7398
▁이익을	-7399
▁중기	-7400
▁r	-7401
▁신흥	-7402
▁누군가가	-7403
▁점심	-7404
▁빌려	-7405
▁추억	-7406
▁계열사	-7407
▁작동	-7408
조에	-7409
ould	-7410
식과	-7411
▁구체적으로	-7412
복합	-7413
▁별다른	-7414
▁시공	-7415
▁냈	-7416
▁차원의	-7417
진행	-7418
▁2030	-7419
▁주인공	-7420
▁자전거	-7421
▁회사의	-7422
▁들어오는	-7423
았다는	-7424
한을	-7425
▁한때	-7426
▁수련	-7427
박한	-7428
불을	-7429
▁지방자치단체	-7430
▁아이템	-7431
▁바라는	-7432
▁동북	-7433
▁신문	-7434
▁어르신	-7435
▁역사를	-7436
▁여행을	-7437
▁전망이	-7438
▁김포	-7439
▁종사	-7440
에서부터	-7441
생명	-7442
▁챙겨	-7443
▁에게	-7444
▁par	-7445
▁같아서	-7446
▁사정	-7447
▁종전	-7448
▁불렀다	-7449
▁아픔	-7450
▁어색	-7451
▁배터리	-7452
▁서민	-7453
▁선택약정할인	-7454
▁기업들이	-7455
▁모양이었다	-7456
▁설명을	-7457
▁v	-7458
억원이	-7459
기며	-7460
▁지혜	-7461
재로	-7462
▁근로시간	-7463
하러	-7464
▁화려한	-7465
모가	-7466
시대	-7467
▁서울시는	-7468
▁테스트	-7469
▁절감	-7470
▁고등	-7471
웠던	-7472
▁고객님의	-7473
지인	-7474
▁차별화된	-7475
▁한강	-7476
▁걸었다	-7477
▁승계	-7478
RL	-7479
해보면	-7480
▁더듬	-7481
▁날씨	-7482
타이어	-7483
하다며	-7484
▁산업통상자원	-7485
▁승진	-7486
할지	-7487
▁무죄	-7488
▁썼다	-7489
달아	-7490
프로그램	-7491
▁본부	-7492
아파트	-7493
▁소리로	-7494
심에서	-7495
있을	-7496
명에게	-7497
역에서	-7498
▁갈라	-7499
▁떋	-7500
▁매월	-7501
벤처기업	-7502
▁홀로	-7503
▁솔루션	-7504
▁된다면	-7505
6000	-7506
▁싸우	-7507
▁78	-7508
▁다를	-7509
▁중국과	-7510
▁대고	-7511
요한	-7512
기념	-7513
▁적절한	-7514
▁장학	-7515
▁고객님께서	-7516
렸지만	-7517
박물	-7518
생은	-7519
▁관해	-7520
▁마시고	-7521
행한	-7522
▁시키	-7523
영을	-7524
▁태어나	-7525
▁모임	-7526
경에	-7527
타임	-7528
▁협상을	-7529
자리에	-7530
▁신호	-7531
▁천연	-7532
▁죽는	-7533
동은	-7534
▁대표의	-7535
▁도쿄	-7536
▁뛰어나	-7537
▁의존	-7538
▁196	-7539
▁애널	-7540
▁될까요	-7541
▁죽음을	-7542
▁지내	-7543
▁금강	-7544
▁모르겠다	-7545
▁소상공인	-7546
▁의혹이	-7547
▁갚	-7548
▁청탁	-7549
▁어머니가	-7550
▁지주	-7551
▁주세요	-7552
▁고객의	-7553
▁이윽	-7554
▁점이다	-7555
▁멍청	-7556
▁부부	-7557
▁여성이	-7558
▁꼼꼼	-7559
▁비중을	-7560
▁받아야	-7561
▁아들이	-7562
▁하셨	-7563
▁not	-7564
▁내리는	-7565
▁어디에	-7566
전자는	-7567
▁혁	-7568
▁떠난	-7569
▁윈	-7570
별로는	-7571
ak	-7572
▁덒래	-7573
▁억제	-7574
시키기	-7575
▁올랐	-7576
▁보인다고	-7577
스포츠	-7578
반을	-7579
▁극대	-7580
▁나섰	-7581
▁사로잡	-7582
▁후보를	-7583
빛이	-7584
▁있으니까	-7585
임대	-7586
▁이들을	-7587
▁정상회담을	-7588
▁낚	-7589
▁조명	-7590
▁잇따라	-7591
▁일으켜	-7592
▁공개한	-7593
역에	-7594
▁앉은	-7595
후에	-7596
▁보존	-7597
▁여자를	-7598
졌지만	-7599
참여	-7600
▁셀트리	-7601
▁징계	-7602
스탄	-7603
▁감상	-7604
▁예외	-7605
그런	-7606
로도	-7607
▁한데	-7608
▁어머니는	-7609
▁거리를	-7610
▁순으로	-7611
▁사흘	-7612
▁시달	-7613
수석	-7614
▁천안	-7615
▁사업의	-7616
▁주어	-7617
▁폼페이오	-7618
플랜	-7619
▁그럼에도	-7620
▁주문을	-7621
▁조속	-7622
▁휘두	-7623
▁조금만	-7624
실히	-7625
▁위험한	-7626
▁과제	-7627
▁왜냐	-7628
▁부분에	-7629
▁정도였다	-7630
▁총리	-7631
니까요	-7632
▁조금도	-7633
▁끌려	-7634
▁다스	-7635
▁마라	-7636
▁발언을	-7637
▁여당	-7638
▁진행한	-7639
거리를	-7640
▁홍준	-7641
국으로	-7642
▁압도	-7643
▁가졌다	-7644
▁상담사	-7645
▁사용하고	-7646
이게	-7647
▁요청했다	-7648
▁무더	-7649
팀이	-7650
▁확신	-7651
▁특별히	-7652
▁오토	-7653
▁일종의	-7654
현의	-7655
▁국세	-7656
▁고소	-7657
▁끔찍	-7658
▁질렀다	-7659
새끼	-7660
▁쨅	-7661
▁보게	-7662
▁너무도	-7663
▁납품	-7664
▁말이지	-7665
하자는	-7666
▁부하	-7667
▁멕	-7668
▁진행되고	-7669
▁결과는	-7670
▁우리에게	-7671
▁간단한	-7672
시장에	-7673
▁시진	-7674
▁의지	-7675
▁ICT	-7676
▁허가	-7677
lic	-7678
하이닉	-7679
▁사용해	-7680
▁숨어	-7681
드리며	-7682
ch	-7683
▁토지	-7684
▁기업을	-7685
▁아끼	-7686
보자	-7687
▁기대한다	-7688
▁스크	-7689
▁평택	-7690
ER	-7691
▁ᅲ	-7692
▁아마존	-7693
▁시켜	-7694
▁경상	-7695
▁형이	-7696
▁추적	-7697
행사	-7698
▁마법을	-7699
▁저소득	-7700
▁몇몇	-7701
▁아버지의	-7702
▁에너	-7703
▁커뮤니티	-7704
▁안녕하세요	-7705
들이다	-7706
▁지나치게	-7707
▁충격을	-7708
방에서	-7709
▁부러	-7710
낸다	-7711
하기를	-7712
▁언어	-7713
▁않아서	-7714
군에	-7715
▁이윽고	-7716
미의	-7717
▁찾기	-7718
▁양도	-7719
무가	-7720
▁순매수	-7721
은행이	-7722
▁벌이고	-7723
▁소리와	-7724
4000	-7725
▁싸늘	-7726
▁툭	-7727
▁아이는	-7728
▁뾦	-7729
▁정무	-7730
▁가이드	-7731
▁전까지	-7732
▁상관없	-7733
저리	-7734
급여	-7735
▁군은	-7736
▁정부에	-7737
동물	-7738
료로	-7739
▁하나금융	-7740
위기	-7741
▁시야	-7742
▁가격을	-7743
▁홈페이지에서	-7744
▁문화예술	-7745
국가	-7746
거라	-7747
시장은	-7748
▁분석이	-7749
▁소외	-7750
▁명령을	-7751
▁우린	-7752
▁회사는	-7753
▁때의	-7754
▁방을	-7755
▁당국	-7756
▁위안부	-7757
▁감추	-7758
타는	-7759
▁쥬	-7760
시장의	-7761
▁언니	-7762
님께	-7763
▁임신	-7764
▁착용	-7765
▁곱	-7766
한이	-7767
▁협의를	-7768
▁어쩐	-7769
▁꽤나	-7770
▁뜨고	-7771
▁이슬	-7772
▁후보자	-7773
▁컨센서	-7774
▁아리	-7775
▁시대를	-7776
▁헐	-7777
수익	-7778
▁특파	-7779
▁간에	-7780
이면서	-7781
▁복귀	-7782
▁IoT	-7783
▁CC	-7784
▁기도	-7785
▁나면	-7786
▁흘러내	-7787
먼트	-7788
사업에	-7789
까지만	-7790
▁꿇	-7791
▁틀림없	-7792
▁분석이다	-7793
▁홍준표	-7794
개월간	-7795
▁벽에	-7796
▁포착	-7797
▁철학	-7798
하나요	-7799
▁얼음	-7800
근로	-7801
리던	-7802
느냐는	-7803
▁버릴	-7804
▁다해	-7805
▁있소	-7806
▁삽	-7807
▁컬러	-7808
안에서	-7809
▁발생했다	-7810
ap	-7811
감사	-7812
▁작품을	-7813
▁사이의	-7814
▁되찾	-7815
▁저를	-7816
▁미국에	-7817
▁현재는	-7818
▁면역	-7819
▁확대하고	-7820
▁한해	-7821
요금제	-7822
▁연금	-7823
드릴까요	-7824
▁유동	-7825
▁능력이	-7826
클럽	-7827
▁버려	-7828
▁현직	-7829
▁앨	-7830
▁뻗어	-7831
▁썩	-7832
▁야외	-7833
교를	-7834
▁발효	-7835
▁있어도	-7836
▁관객	-7837
손으로	-7838
보건	-7839
▁않았을	-7840
▁world	-7841
소비	-7842
▁사용이	-7843
▁대통령에게	-7844
로워	-7845
머리	-7846
▁알리	-7847
▁선사	-7848
▁적절	-7849
▁아직은	-7850
▁기록한	-7851
▁되자	-7852
▁형태의	-7853
▁인민	-7854
▁추진한다	-7855
▁것보다	-7856
▁냉장	-7857
버릴	-7858
▁킬	-7859
▁급등	-7860
▁페이	-7861
▁해가	-7862
원이다	-7863
구와	-7864
▁주변에	-7865
▁약속을	-7866
▁흔히	-7867
공사는	-7868
실과	-7869
▁소화	-7870
▁일주일	-7871
▁방에	-7872
로우	-7873
▁기쁘	-7874
▁80%	-7875
▁출근	-7876
▁왼쪽	-7877
▁말라	-7878
▁구매할	-7879
▁멋진	-7880
차이즈	-7881
▁가속	-7882
▁증언	-7883
▁송파	-7884
▁시작해	-7885
▁감지	-7886
age	-7887
▁TF	-7888
▁영웅	-7889
▁둘러싸	-7890
▁이끌고	-7891
▁나이가	-7892
▁휴가	-7893
8000	-7894
▁이곳에서	-7895
▁감고	-7896
기술을	-7897
▁곳이다	-7898
풍이	-7899
▁마법사	-7900
▁꿀	-7901
였는데	-7902
▁건강보험	-7903
년과	-7904
▁안을	-7905
▁66	-7906
▁속의	-7907
▁아시	-7908
▁성공적으로	-7909
▁행정안전	-7910
법으로	-7911
▁결정했다	-7912
▁상담을	-7913
▁0%	-7914
퍼런	-7915
▁더구나	-7916
▁클럽	-7917
▁여기저	-7918
▁분야에	-7919
▁자존	-7920
군과	-7921
해주신	-7922
▁유족	-7923
▁생각한	-7924
▁아이의	-7925
인당	-7926
드라	-7927
▁쉴	-7928
로지	-7929
▁대비해	-7930
▁나지	-7931
her	-7932
▁자유롭게	-7933
▁벌떡	-7934
▁VR	-7935
▁이번엔	-7936
▁북한을	-7937
▁느껴지는	-7938
▁실망	-7939
▁늘려	-7940
해지	-7941
st	-7942
▁자회사	-7943
이라서	-7944
▁이후에	-7945
▁지역사회	-7946
잔을	-7947
▁동종목에	-7948
▁집권	-7949
▁온가족	-7950
▁카카오톡	-7951
▁영광	-7952
기업의	-7953
▁황제	-7954
▁대피	-7955
▁소프트웨어	-7956
▁시의	-7957
본부는	-7958
▁힘입	-7959
▁마련됐다	-7960
▁무거운	-7961
▁처음에는	-7962
▁정작	-7963
▁혼자서	-7964
▁사람과	-7965
▁대표하는	-7966
해주세요	-7967
▁협박	-7968
방울	-7969
여명의	-7970
lp	-7971
▁확대할	-7972
▁맡아	-7973
▁시가총	-7974
▁펫	-7975
들과의	-7976
체로	-7977
▁땅을	-7978
▁걸고	-7979
▁파티	-7980
▁재생	-7981
▁쥐고	-7982
▁보입니다	-7983
▁백화점	-7984
▁얀	-7985
▁안타까	-7986
▁CN	-7987
▁어때	-7988
▁연다	-7989
▁기억이	-7990
▁드러나	-7991
▁적정	-7992
▁급여	-7993
▁정책에	-7994
▁급격	-7995
것을	-7996
▁sh	-7997
통이	-7998
▁있을지	-7999
▁측이	-8000
▁뜯	-8001
▁자금을	-8002
▁비로소	-8003
▁물에	-8004
슨은	-8005
▁중견	-8006
▁구매시	-8007
▁고생	-8008
▁63	-8009
겨진	-8010
▁봐도	-8011
▁프랜	-8012
▁호응	-8013
▁운영한다	-8014
▁주신	-8015
▁선보였다	-8016
▁사라졌다	-8017
▁맛을	-8018
경우	-8019
세다	-8020
▁차기	-8021
▁와이	-8022
▁논의가	-8023
br	-8024
▁다들	-8025
▁상가	-8026
▁꼽힌다	-8027
▁양산	-8028
진과	-8029
▁어깨에	-8030
▁검토하고	-8031
교육청	-8032
▁다시는	-8033
▁사랑의	-8034
▁말하면	-8035
all	-8036
▁차지하는	-8037
▁정밀	-8038
▁걷어	-8039
▁방사	-8040
▁멤버	-8041
▁모델을	-8042
▁방북	-8043
▁받아들여	-8044
서와	-8045
령은	-8046
▁있었다는	-8047
막을	-8048
▁핫	-8049
▁골목	-8050
▁무조건	-8051
▁77	-8052
형으로	-8053
▁우려를	-8054
▁본래	-8055
▁함께하는	-8056
▁매력	-8057
▁누나	-8058
재산	-8059
▁사건의	-8060
▁떡	-8061
받침	-8062
▁현장에	-8063
이어서	-8064
▁국가의	-8065
▁위축	-8066
▁입장이	-8067
▁때에는	-8068
▁슬픔	-8069
▁이정	-8070
▁크로	-8071
▁요금할인	-8072
▁노선	-8073
▁어린이집	-8074
준이	-8075
▁있었을	-8076
▁늦게	-8077
▁펄	-8078
▁자영업	-8079
▁비웃	-8080
▁소리에	-8081
▁무언가	-8082
소송	-8083
▁맥주	-8084
▁올바	-8085
▁교섭	-8086
인권	-8087
▁번도	-8088
급히	-8089
차의	-8090
▁위원장의	-8091
▁카르	-8092
▁가능성은	-8093
전에서	-8094
IC	-8095
▁기원	-8096
▁것일	-8097
▁의도	-8098
승을	-8099
▁포장	-8100
▁예상했다	-8101
▁육아	-8102
▁호기	-8103
▁지고	-8104
▁전수	-8105
부채	-8106
▁주저앉	-8107
하시고	-8108
▁모르겠	-8109
구려	-8110
대사	-8111
▁이밖에	-8112
▁선을	-8113
▁선정됐다	-8114
▁안전을	-8115
란드	-8116
▁행위를	-8117
폭이	-8118
▁마음은	-8119
▁철저한	-8120
▁초래	-8121
▁01	-8122
▁즐기는	-8123
▁없으면	-8124
▁88	-8125
교육을	-8126
▁치솟	-8127
▁이것을	-8128
▁수학	-8129
og	-8130
민은	-8131
ill	-8132
▁1.	-8133
▁멕시코	-8134
이었는데	-8135
▁위대한	-8136
▁고성	-8137
▁예의	-8138
▁불확실	-8139
었기	-8140
▁식당	-8141
ore	-8142
▁권리를	-8143
▁침대에	-8144
처분	-8145
9000	-8146
▁처분	-8147
▁한꺼	-8148
▁위탁	-8149
▁부실	-8150
▁박사	-8151
▁앉아서	-8152
▁백악관	-8153
▁것들이	-8154
▁딜	-8155
▁온통	-8156
미술	-8157
▁먹어	-8158
▁합의를	-8159
▁높일	-8160
▁기무	-8161
▁일어서	-8162
▁이주	-8163
▁지역은	-8164
▁무려	-8165
▁기운이	-8166
▁많고	-8167
▁테니	-8168
▁연습	-8169
하기에	-8170
▁튀어나	-8171
▁나라의	-8172
▁구매가	-8173
▁방문을	-8174
▁증가하는	-8175
우기	-8176
▁저었다	-8177
하에	-8178
▁입원	-8179
고용	-8180
▁51	-8181
▁위원장	-8182
하더라도	-8183
발의	-8184
교의	-8185
▁수여	-8186
▁전후	-8187
▁상당의	-8188
숙한	-8189
▁차갑	-8190
▁09	-8191
축제	-8192
▁사례를	-8193
겠죠	-8194
▁강요	-8195
부담	-8196
작을	-8197
▁미군	-8198
했다가	-8199
▁74	-8200
▁염려	-8201
▁전송	-8202
▁동부	-8203
▁이해가	-8204
▁까닭	-8205
▁시사	-8206
▁상대가	-8207
라를	-8208
▁암호화폐	-8209
▁톩	-8210
▁95	-8211
▁제어	-8212
보다가	-8213
▁란테르	-8214
로로	-8215
▁분석한	-8216
렸다는	-8217
▁방문한	-8218
▁문제의	-8219
▁다르다	-8220
작업	-8221
▁나란히	-8222
▁전세	-8223
▁예정입니다	-8224
역시	-8225
버리	-8226
▁위험이	-8227
▁수준에	-8228
▁한가지	-8229
▁줄여	-8230
▁솜	-8231
▁내리고	-8232
협정	-8233
하긴	-8234
실장	-8235
▁아세	-8236
린의	-8237
▁몰래	-8238
▁주먹을	-8239
▁거리가	-8240
▁앓	-8241
▁한국에	-8242
▁말입니다	-8243
▁해제	-8244
▁모양이	-8245
▁국무총	-8246
▁참여를	-8247
▁사라진	-8248
▁채워	-8249
종이	-8250
뱅크	-8251
▁눌러	-8252
▁시진핑	-8253
▁흡수	-8254
▁높아지고	-8255
▁기대한다고	-8256
▁지점	-8257
▁품목	-8258
▁아저씨	-8259
▁머리에	-8260
▁연구를	-8261
절로	-8262
▁조금은	-8263
두에	-8264
▁무한	-8265
▁들어갔	-8266
▁목소리에	-8267
▁간담회를	-8268
▁등급	-8269
▁한국은	-8270
▁간부	-8271
▁유일하게	-8272
▁거요	-8273
경기	-8274
▁확인한	-8275
▁용량	-8276
▁민주주의	-8277
▁불공	-8278
졌을	-8279
▁추진해	-8280
▁세포	-8281
▁그리스	-8282
▁가짜	-8283
▁섹션	-8284
▁60%	-8285
▁중에는	-8286
▁붙여	-8287
▁세운	-8288
하가	-8289
담한	-8290
▁98	-8291
▁압수수색	-8292
엘은	-8293
보장	-8294
▁흐름을	-8295
고속도로	-8296
▁낡	-8297
▁릭	-8298
이동	-8299
랑이	-8300
▁도와드리겠습니다	-8301
▁무의	-8302
▁없었지만	-8303
▁솟아	-8304
▁그레이	-8305
루를	-8306
▁방안도	-8307
▁북한과	-8308
▁연관	-8309
▁것인	-8310
▁지목	-8311
ain	-8312
▁연락을	-8313
31	-8314
▁금액이	-8315
▁유가	-8316
▁태도를	-8317
▁계집	-8318
▁URL	-8319
부에서	-8320
순간	-8321
▁홈페이지를	-8322
▁공인	-8323
였다고	-8324
됨에	-8325
▁권리	-8326
▁69	-8327
▁들어선	-8328
▁말없이	-8329
천은	-8330
▁오리	-8331
▁제품의	-8332
▁참을	-8333
▁학술	-8334
▁수영	-8335
▁인건	-8336
▁물량	-8337
▁쇼핑몰	-8338
▁여섯	-8339
▁전략적	-8340
늦게	-8341
▁나름대로	-8342
▁정해	-8343
▁기여할	-8344
▁목숨	-8345
전과	-8346
▁촉진	-8347
▁명시	-8348
▁한국을	-8349
녀가	-8350
▁비명	-8351
▁규제를	-8352
▁복잡한	-8353
▁인적	-8354
▁다르게	-8355
▁레아	-8356
곳이	-8357
▁초등	-8358
▁형제	-8359
옵션	-8360
료는	-8361
▁하다가	-8362
▁특화	-8363
케이	-8364
▁그쳤다	-8365
▁인기가	-8366
▁세무	-8367
느냐고	-8368
▁다는	-8369
발이	-8370
▁던졌다	-8371
철수	-8372
마스	-8373
▁목소리는	-8374
▁한꺼번에	-8375
▁국민연금	-8376
끄는	-8377
운은	-8378
튜브	-8379
노총	-8380
▁과정에	-8381
▁수리	-8382
▁죽이	-8383
▁순매도	-8384
▁자사	-8385
문으로	-8386
▁제국	-8387
데이	-8388
▁되며	-8389
▁지능	-8390
프가	-8391
▁단어	-8392
▁약간의	-8393
▁협약을	-8394
▁비대	-8395
▁사냥	-8396
▁결심	-8397
pl	-8398
처는	-8399
▁엿	-8400
▁드러난	-8401
▁달했다	-8402
▁뒷받침	-8403
되도록	-8404
▁낮추	-8405
▁동시	-8406
시간이	-8407
▁뮤지컬	-8408
협의회	-8409
▁적립	-8410
겠지요	-8411
▁상황은	-8412
비에	-8413
사항을	-8414
▁필요합니다	-8415
▁성희	-8416
▁현상이	-8417
▁공연을	-8418
▁말하며	-8419
▁공익	-8420
▁맞습니다	-8421
▁헉	-8422
천의	-8423
▁당당	-8424
▁sa	-8425
▁안아	-8426
▁힘입어	-8427
두를	-8428
겠다며	-8429
▁첫째	-8430
판이	-8431
▁사용자	-8432
▁해요	-8433
▁마땅	-8434
▁조례	-8435
▁대체로	-8436
▁보냈	-8437
▁웃으면서	-8438
산화	-8439
▁떨리는	-8440
들로부터	-8441
야지	-8442
▁비타	-8443
▁독특	-8444
▁없었고	-8445
▁해결을	-8446
렉스	-8447
▁자라	-8448
▁중순	-8449
▁재능	-8450
▁보았	-8451
▁노예	-8452
▁차량을	-8453
인력	-8454
▁김대	-8455
▁날짜	-8456
▁공화	-8457
경의	-8458
▁체제	-8459
▁옹	-8460
니를	-8461
▁판매를	-8462
욕을	-8463
▁떴다	-8464
▁학교에	-8465
▁후회	-8466
▁공론화	-8467
▁소송을	-8468
▁흥미	-8469
▁나라를	-8470
고도	-8471
프리	-8472
▁국가안보	-8473
▁측면에서	-8474
는데도	-8475
▁끝났	-8476
▁후후	-8477
▁화면	-8478
오가	-8479
▁매장을	-8480
▁2006	-8481
▁맞서	-8482
▁굵	-8483
▁부각	-8484
▁부회장은	-8485
견이	-8486
▁헬스	-8487
▁소규모	-8488
▁정의당	-8489
▁지만	-8490
▁선보일	-8491
IS	-8492
주인	-8493
▁화이트	-8494
▁걸친	-8495
▁보내는	-8496
▁증가하고	-8497
▁중학교	-8498
병이	-8499
단다	-8500
▁접목	-8501
▁하아	-8502
길에	-8503
▁자동으로	-8504
▁중의	-8505
▁분석을	-8506
▁킕	-8507
▁단호	-8508
▁모양이다	-8509
▁거울	-8510
▁김모	-8511
조치	-8512
움에	-8513
▁대단히	-8514
▁불쌍	-8515
▁학생들의	-8516
▁온갖	-8517
지마	-8518
▁널리	-8519
▁노동자	-8520
▁농담	-8521
▁님	-8522
▁복원	-8523
은행의	-8524
▁민주당은	-8525
▁거기서	-8526
▁수익을	-8527
▁스피커	-8528
천여	-8529
▁지지를	-8530
들에게는	-8531
▁가능한가요	-8532
▁든다	-8533
카는	-8534
▁세웠다	-8535
편의	-8536
▁남아있	-8537
▁대표이	-8538
▁이름으로	-8539
▁아침에	-8540
▁찾았다	-8541
▁얹	-8542
정과	-8543
오르는	-8544
▁제법	-8545
▁귀에	-8546
▁떨어뜨	-8547
▁깨물	-8548
들인	-8549
▁아가씨	-8550
소년	-8551
▁자세를	-8552
▁기소된	-8553
▁합리적인	-8554
▁특유의	-8555
계좌	-8556
▁결론을	-8557
렸다고	-8558
▁IB	-8559
36	-8560
▁생길	-8561
▁소폭	-8562
조한	-8563
▁부근	-8564
▁갖는	-8565
▁시민단체	-8566
▁클라우드	-8567
▁기업은	-8568
▁높이기	-8569
▁나이트	-8570
분쯤	-8571
▁주장을	-8572
▁내비	-8573
▁05	-8574
▁매출액	-8575
▁상태가	-8576
▁언급했다	-8577
▁프랜차이즈	-8578
▁끼어	-8579
▁스트레	-8580
▁예정인	-8581
▁기획재정부	-8582
점과	-8583
▁진심으로	-8584
장비	-8585
▁때문입니다	-8586
▁영원히	-8587
▁아사	-8588
▁시대에	-8589
▁이영	-8590
▁연결해	-8591
▁쓰레기	-8592
▁지나지	-8593
▁일어날	-8594
ON	-8595
▁미투	-8596
▁댓글의	-8597
회로	-8598
▁고개	-8599
아리	-8600
▁유전	-8601
AN	-8602
위원회에	-8603
▁가까워	-8604
▁사항은	-8605
▁운송	-8606
▁2021	-8607
▁현상	-8608
▁성추행	-8609
▁승객	-8610
▁이미지를	-8611
▁칭찬	-8612
▁불가능한	-8613
▁유아	-8614
▁편지를	-8615
▁명칭	-8616
버그	-8617
▁오르는	-8618
던가	-8619
백한	-8620
▁브라질	-8621
▁찡	-8622
▁약한	-8623
방향	-8624
▁모르겠지만	-8625
▁남해	-8626
▁지니고	-8627
▁낮게	-8628
▁필요는	-8629
▁알리는	-8630
▁마사	-8631
▁강화해	-8632
▁누릴	-8633
▁생각합니다	-8634
해진다	-8635
▁명절	-8636
▁항의	-8637
▁제품에	-8638
▁의약품	-8639
▁이지	-8640
공연	-8641
▁이성	-8642
▁성희롱	-8643
▁치켜	-8644
▁방치	-8645
▁정원	-8646
▁일그러	-8647
▁산업혁	-8648
▁금속	-8649
▁대가	-8650
쓰고	-8651
▁확실한	-8652
▁세계에서	-8653
년째	-8654
7000	-8655
결이	-8656
▁약속했다	-8657
▁구상	-8658
▁잘라	-8659
▁제공해	-8660
▁빨간	-8661
▁점에	-8662
▁연내	-8663
▁버티	-8664
▁세제	-8665
▁한은	-8666
▁준비하고	-8667
▁김씨는	-8668
▁한번도	-8669
▁쓰러져	-8670
작은	-8671
▁기관이	-8672
▁고객에게	-8673
▁섰다	-8674
▁속을	-8675
그룹의	-8676
받지	-8677
ard	-8678
▁연설	-8679
▁결정할	-8680
▁축구	-8681
시장이	-8682
겠는가	-8683
▁환자의	-8684
청구	-8685
▁걸로	-8686
▁순환	-8687
▁경주	-8688
▁지불	-8689
▁규칙	-8690
▁시민들이	-8691
말이	-8692
▁승리	-8693
임이	-8694
장치	-8695
▁다음과	-8696
▁이어진	-8697
전기	-8698
놀이	-8699
▁평범한	-8700
▁구석	-8701
▁실적이	-8702
교류	-8703
▁요금제를	-8704
▁특파원	-8705
▁그제서야	-8706
▁생리	-8707
▁경매	-8708
▁전하	-8709
▁조종	-8710
▁릴	-8711
홈쇼핑	-8712
▁뚝	-8713
▁적응	-8714
▁남북관계	-8715
▁we	-8716
▁현장을	-8717
37	-8718
채를	-8719
▁의자에	-8720
▁실태	-8721
▁태어난	-8722
파를	-8723
▁지은	-8724
▁심지어	-8725
▁묵묵	-8726
리아는	-8727
▁주인이	-8728
▁받으며	-8729
준의	-8730
▁다가왔다	-8731
▁않는다면	-8732
▁방한	-8733
▁하려	-8734
▁틀어	-8735
▁더이상	-8736
▁신이	-8737
lica	-8738
▁뻶	-8739
▁SU	-8740
▁의장	-8741
▁운동을	-8742
▁보류	-8743
▁중장기	-8744
▁대대	-8745
▁어렵습니다	-8746
집에	-8747
▁계절	-8748
aui	-8749
된다면	-8750
▁이끄는	-8751
▁원의	-8752
▁교과	-8753
help	-8754
▁한국당은	-8755
▁아직까지	-8756
▁김상	-8757
▁서부	-8758
▁크루	-8759
약한	-8760
▁노래를	-8761
▁내려가	-8762
▁않아요	-8763
▁줄을	-8764
림의	-8765
하고도	-8766
결에	-8767
▁나타나는	-8768
▁감축	-8769
▁얼어	-8770
고객님께서는	-8771
▁투자의견은	-8772
왕은	-8773
출을	-8774
녀는	-8775
답글	-8776
▁사건에	-8777
▁괜히	-8778
▁않았다는	-8779
uplica	-8780
ecaui	-8781
uplicaecaui	-8782
더군	-8783
▁신생	-8784
▁한숨	-8785
▁기각	-8786
도에서	-8787
▁시에	-8788
화해	-8789
▁댓글을	-8790
▁인테	-8791
▁놀랐다	-8792
▁개척	-8793
▁듣지	-8794
▁스승	-8795
▁생물	-8796
디는	-8797
▁하는지	-8798
▁FTA	-8799
▁등록이	-8800
미디어	-8801
▁영장	-8802
▁신혼	-8803
▁손가락을	-8804
▁평화의	-8805
▁기반을	-8806
▁샘	-8807
▁재발	-8808
▁펠	-8809
▁숨진	-8810
▁02	-8811
▁집값	-8812
▁이하의	-8813
즈의	-8814
▁과도한	-8815
으면서도	-8816
▁노무현	-8817
르트	-8818
▁받기	-8819
▁저의	-8820
▁출동	-8821
▁화물	-8822
▁원인이	-8823
▁숨이	-8824
국에서	-8825
하지도	-8826
▁오늘날	-8827
뱻봞	-8828
되는데	-8829
▁종류	-8830
▁순차적으로	-8831
▁보편	-8832
▁삼성증권	-8833
명이다	-8834
▁설비	-8835
▁껴	-8836
구에서	-8837
▁내릴	-8838
▁운영을	-8839
▁시나	-8840
▁신뢰를	-8841
한번	-8842
▁시기에	-8843
▁오늘도	-8844
▁고대	-8845
준은	-8846
▁일으켰다	-8847
▁구성해	-8848
▁함부로	-8849
▁되는데	-8850
▁김종	-8851
▁목이	-8852
▁방위	-8853
▁패널	-8854
▁윌	-8855
▁스페인	-8856
▁보다는	-8857
▁확인했다	-8858
▁예정된	-8859
▁se	-8860
로에	-8861
▁컸다	-8862
▁쿠폰	-8863
▁긍정적	-8864
▁정보통신	-8865
▁일치	-8866
▁편이	-8867
1000	-8868
▁피할	-8869
히지	-8870
▁벌어진	-8871
▁텔레	-8872
림은	-8873
인한	-8874
산과	-8875
▁싶어서	-8876
▁투자자	-8877
34	-8878
▁애써	-8879
▁씩	-8880
달라는	-8881
정책을	-8882
▁싶습니다	-8883
▁관리를	-8884
▁일관	-8885
▁가격에	-8886
▁가늘	-8887
▁폭력	-8888
▁없다면	-8889
▁조리	-8890
품이	-8891
▁음료	-8892
▁사장이	-8893
했었다	-8894
분은	-8895
▁지수	-8896
▁뷰티	-8897
▁주식을	-8898
▁잇따	-8899
▁앗	-8900
▁훗	-8901
▁문화재	-8902
▁투쟁	-8903
파로	-8904
▁일부를	-8905
분양	-8906
▁알수	-8907
▁수천	-8908
▁하나인	-8909
▁슬쩍	-8910
▁추첨	-8911
▁인접	-8912
▁찾아가	-8913
▁작성한	-8914
▁판매한다	-8915
mm	-8916
▁바꿀	-8917
▁인간은	-8918
▁속이	-8919
▁억울	-8920
▁수를	-8921
▁작게	-8922
▁붕괴	-8923
▁잉	-8924
▁이르면	-8925
▁have	-8926
레인	-8927
▁반영해	-8928
▁밖에서	-8929
▁잠시만	-8930
▁김기	-8931
▁자제	-8932
▁내려다	-8933
란한	-8934
▁열려	-8935
▁일환으로	-8936
▁보이며	-8937
▁놀라운	-8938
고기	-8939
▁지낸	-8940
긴다	-8941
평등	-8942
으신	-8943
▁지키고	-8944
▁심하게	-8945
▁하실	-8946
▁내놓은	-8947
▁이외에도	-8948
▁중동	-8949
▁고객을	-8950
▁도덕	-8951
▁노릇	-8952
▁사회의	-8953
▁랜	-8954
▁콧	-8955
되나요	-8956
시지	-8957
▁미국에서	-8958
▁꼬마	-8959
▁캠프	-8960
▁틒	-8961
▁회의에서	-8962
▁회사가	-8963
▁충청	-8964
변화	-8965
▁올리고	-8966
▁좋겠다	-8967
묘한	-8968
▁초점을	-8969
신문	-8970
▁당뇨	-8971
▁렀덕봞	-8972
▁97	-8973
▁최고위원	-8974
▁뱀	-8975
사들의	-8976
▁추후	-8977
국과	-8978
▁요구를	-8979
▁주목된다	-8980
▁설문	-8981
▁알았어	-8982
▁몰라도	-8983
▁차분	-8984
▁나서는	-8985
팀을	-8986
▁교육부	-8987
▁최근에	-8988
▁이뤄졌다	-8989
▁잦	-8990
od	-8991
답니다	-8992
리안	-8993
▁줬	-8994
▁195	-8995
▁만나는	-8996
▁그릇	-8997
▁여수	-8998
영화	-8999
▁추락	-9000
▁검사를	-9001
▁기후	-9002
▁앞장서	-9003
▁걱정이	-9004
▁느끼며	-9005
▁지옥	-9006
▁봅	-9007
금액은	-9008
든가	-9009
▁이메	-9010
▁이상은	-9011
▁개인의	-9012
▁회견을	-9013
▁양질의	-9014
정하게	-9015
▁죽일	-9016
▁맑은	-9017
▁업계에	-9018
▁끌어안	-9019
▁변해	-9020
▁소멸	-9021
▁웃음이	-9022
▁반응이	-9023
제일	-9024
▁그러므로	-9025
▁프로모션	-9026
▁이용이	-9027
▁추모	-9028
열을	-9029
▁유권	-9030
▁셀트리온	-9031
▁사건은	-9032
쪽의	-9033
▁마포	-9034
▁병행	-9035
▁주장이	-9036
면세	-9037
▁지경	-9038
적은	-9039
▁당첨	-9040
하기가	-9041
▁녹색	-9042
▁파이	-9043
▁기대를	-9044
제재	-9045
건가	-9046
어의	-9047
화문	-9048
▁놓아	-9049
EC	-9050
드리는	-9051
▁강연	-9052
사들은	-9053
에게로	-9054
▁2.	-9055
▁금액은	-9056
▁콘서	-9057
▁보낼	-9058
▁스티	-9059
▁트위터	-9060
▁매장에서	-9061
▁서울의	-9062
▁확인을	-9063
▁사고를	-9064
▁멨	-9065
▁전직	-9066
파는	-9067
란은	-9068
▁안겨	-9069
▁미래에셋	-9070
버리고	-9071
▁시선	-9072
독한	-9073
▁He	-9074
▁읍	-9075
▁워크	-9076
유예	-9077
▁놓았다	-9078
해보니	-9079
▁가죽	-9080
▁포털	-9081
▁수수료	-9082
▁재직	-9083
▁친구가	-9084
▁그곳에	-9085
▁패턴	-9086
▁90%	-9087
▁관련자료	-9088
▁부회장	-9089
시간에	-9090
▁중대	-9091
일보	-9092
마한	-9093
▁도의	-9094
▁운항	-9095
▁생명을	-9096
▁조건으로	-9097
치면	-9098
대응	-9099
▁규모를	-9100
▁댄	-9101
▁입점	-9102
연대	-9103
▁sk	-9104
ook	-9105
CC	-9106
▁날려	-9107
경찰청	-9108
▁돕는	-9109
▁바닷	-9110
야는	-9111
▁인근에	-9112
테인	-9113
▁운전자	-9114
▁언덕	-9115
▁94	-9116
▁무공	-9117
방은	-9118
편을	-9119
▁맛이	-9120
▁뜻이다	-9121
▁개를	-9122
녀의	-9123
▁럼	-9124
즈가	-9125
▁폐하	-9126
▁쪽을	-9127
▁자의	-9128
▁왜냐하면	-9129
▁지원이	-9130
▁명품	-9131
릅니다	-9132
▁기간을	-9133
다리	-9134
▁함유	-9135
놓았다	-9136
그레	-9137
신고	-9138
▁4000	-9139
▁야간	-9140
▁유효	-9141
▁땐	-9142
▁무인	-9143
▁얽	-9144
▁실리	-9145
▁시그	-9146
▁전신	-9147
▁him	-9148
▁지배구조	-9149
▁생각하면	-9150
▁아닌데	-9151
▁김용	-9152
▁북부	-9153
▁변화에	-9154
▁영향이	-9155
하니까	-9156
네는	-9157
▁겁니까	-9158
▁니다	-9159
▁늑	-9160
화될	-9161
▁환자가	-9162
▁갇	-9163
▁불리	-9164
▁목에	-9165
▁수사에	-9166
왕이	-9167
▁여기는	-9168
▁어머니의	-9169
▁달콤	-9170
▁끝이	-9171
▁그도	-9172
오의	-9173
▁선제	-9174
기간은	-9175
▁갖게	-9176
▁런던	-9177
▁서로의	-9178
사도	-9179
▁외환	-9180
▁자발	-9181
▁외면	-9182
▁마감했다	-9183
▁2005	-9184
생산	-9185
▁주민들이	-9186
▁사회복지	-9187
▁돌아와	-9188
▁하도	-9189
▁다가오는	-9190
▁렀밻	-9191
▁이내에	-9192
▁실시한	-9193
▁하여금	-9194
▁보내고	-9195
▁박정	-9196
▁공산	-9197
▁라이프	-9198
▁발걸	-9199
론이	-9200
▁없으니	-9201
▁과세	-9202
전환	-9203
다보았다	-9204
▁방안에	-9205
▁미국을	-9206
▁내놓았다	-9207
▁기대감이	-9208
정보통신	-9209
던데	-9210
▁엔진	-9211
피해	-9212
킕덦	-9213
자료를	-9214
▁생생	-9215
시장을	-9216
▁금융당	-9217
토를	-9218
▁때에	-9219
▁죽고	-9220
사건	-9221
▁들여다	-9222
▁꼽았다	-9223
▁제안했다	-9224
▁싶다고	-9225
▁삼아	-9226
▁소매	-9227
▁알아서	-9228
허가	-9229
▁그러는	-9230
▁제출한	-9231
▁기능이	-9232
▁과태	-9233
차별	-9234
▁재차	-9235
왔고	-9236
▁현안	-9237
▁고속	-9238
▁삼성바이오	-9239
▁평화와	-9240
▁직원들이	-9241
▁고조	-9242
▁설치된	-9243
▁자아	-9244
비리	-9245
▁깎	-9246
▁똑똑	-9247
▁움직일	-9248
▁애널리스트	-9249
우리	-9250
▁맞고	-9251
▁있는가	-9252
생활을	-9253
▁단말명	-9254
▁눈썹	-9255
▁당내	-9256
▁절망	-9257
▁내놨다	-9258
▁묻고	-9259
▁퍼펙트	-9260
▁묻자	-9261
▁판매하는	-9262
▁돌아왔다	-9263
완료	-9264
건설은	-9265
▁승용	-9266
▁유죄	-9267
▁열릴	-9268
▁아라	-9269
▁마음의	-9270
▁페스티벌	-9271
▁집안	-9272
▁바람을	-9273
se	-9274
▁누리	-9275
▁울고	-9276
▁똑바로	-9277
▁올리는	-9278
▁89	-9279
▁움직임을	-9280
운이	-9281
▁매주	-9282
교육청은	-9283
님과	-9284
▁증시	-9285
▁이곳은	-9286
▁직원이	-9287
▁환율	-9288
▁중국에	-9289
▁서로를	-9290
▁교육과	-9291
산업의	-9292
범위	-9293
분석	-9294
▁거죠	-9295
▁제조사	-9296
▁건가요	-9297
▁착각	-9298
▁기사를	-9299
▁중에서도	-9300
▁살아남	-9301
▁편집	-9302
▁79	-9303
▁무력	-9304
▁았다	-9305
▁심사를	-9306
▁로마	-9307
▁도서관	-9308
▁창립	-9309
▁대상은	-9310
민족	-9311
▁공원	-9312
리즘	-9313
카데	-9314
▁꼬집	-9315
▁일어났	-9316
▁주제	-9317
▁침착	-9318
▁후보로	-9319
▁도모	-9320
▁SUV	-9321
터미널	-9322
▁혁신을	-9323
▁록	-9324
▁일각에서는	-9325
▁개통이	-9326
▁드라이	-9327
쟁이	-9328
투스	-9329
▁강화하는	-9330
▁유지하는	-9331
▁도약	-9332
▁쓸어	-9333
▁민생	-9334
▁72	-9335
예산	-9336
기반	-9337
▁걸릴	-9338
▁고려할	-9339
▁숭	-9340
▁돌아갈	-9341
▁실업	-9342
▁옮겼다	-9343
금으로	-9344
▁행사에	-9345
큩봞	-9346
▁아트	-9347
겨져	-9348
▁믿어	-9349
▁몫	-9350
▁철수	-9351
▁되돌아	-9352
신도시	-9353
▁에는	-9354
▁사무총	-9355
▁진행이	-9356
▁측에	-9357
▁영등	-9358
고에	-9359
▁기조	-9360
중의	-9361
▁스타일	-9362
▁07	-9363
▁양호	-9364
▁감정이	-9365
▁여기까지	-9366
▁참여했다	-9367
▁물가	-9368
▁놀랍	-9369
건지	-9370
▁15%	-9371
▁곳곳에	-9372
▁생기는	-9373
▁06	-9374
▁보여주	-9375
▁이만	-9376
▁일어나는	-9377
▁달린	-9378
▁할수	-9379
▁비공개	-9380
▁올바른	-9381
▁남자를	-9382
▁76	-9383
취를	-9384
▁크지	-9385
▁관람객	-9386
▁입장에서	-9387
▁플래	-9388
▁가난	-9389
빨쟢	-9390
▁뜻이	-9391
▁실로	-9392
▁딱딱	-9393
▁기업과	-9394
▁확인된	-9395
▁대표와	-9396
▁대량	-9397
가치	-9398
▁육군	-9399
▁거칠게	-9400
▁면세점	-9401
▁감탄	-9402
사업은	-9403
▁이나	-9404
▁위의	-9405
▁비타민	-9406
▁분산	-9407
▁이미지	-9408
▁한국이	-9409
만치	-9410
▁알렉	-9411
▁머리칼	-9412
▁변호사는	-9413
▁비트코인	-9414
았어	-9415
색으로	-9416
뒀다	-9417
▁위를	-9418
45	-9419
▁관측이	-9420
▁두는	-9421
▁기업들의	-9422
▁110	-9423
▁중부	-9424
의약품	-9425
▁다시금	-9426
▁중국을	-9427
원대의	-9428
▁있을까요	-9429
▁씨를	-9430
체계를	-9431
▁혈액	-9432
▁법안	-9433
▁분석해	-9434
▁정책이	-9435
▁도민	-9436
▁목록	-9437
▁fr	-9438
▁돌아가는	-9439
▁만찬	-9440
▁원인을	-9441
▁언젠가	-9442
▁제천	-9443
▁너머	-9444
▁때문이라고	-9445
업무	-9446
▁체감	-9447
▁한참을	-9448
▁세계의	-9449
▁매출을	-9450
▁입술이	-9451
▁태국	-9452
▁기간에	-9453
▁가로막	-9454
▁내년부터	-9455
▁일으킨	-9456
▁것인데	-9457
행이	-9458
▁많지	-9459
▁마련할	-9460
▁119	-9461
▁조사에	-9462
▁증상이	-9463
위원회에서	-9464
▁민원	-9465
▁팩	-9466
▁오를	-9467
▁원유	-9468
▁공을	-9469
qu	-9470
▁캘	-9471
▁깨끗한	-9472
집니다	-9473
청을	-9474
▁대상을	-9475
▁움직이지	-9476
▁김태	-9477
▁주위	-9478
▁가져다	-9479
▁96	-9480
에서만	-9481
란이	-9482
▁장군	-9483
란을	-9484
▁예상되는	-9485
▁페르	-9486
▁속도가	-9487
▁자칫	-9488
▁넘어서	-9489
청의	-9490
▁한일	-9491
▁남측	-9492
▁토요일	-9493
▁전용면적	-9494
▁톡	-9495
▁킳	-9496
▁합쳐	-9497
방지	-9498
▁가중	-9499
방안	-9500
▁거래소	-9501
▁열쇠	-9502
▁OLED	-9503
▁존경	-9504
▁자세로	-9505
▁찾지	-9506
▁버렸	-9507
▁후반	-9508
▁내야	-9509
▁전설	-9510
▁잡혀	-9511
▁철거	-9512
▁찾아가는	-9513
하군	-9514
▁비율	-9515
끄러운	-9516
▁밤에	-9517
▁무제한	-9518
감으로	-9519
▁내수	-9520
▁둘은	-9521
▁부패	-9522
기에는	-9523
▁보육	-9524
▁제품으로	-9525
▁진로	-9526
▁판단을	-9527
▁스타벅	-9528
▁지사는	-9529
과장은	-9530
▁부활	-9531
▁무대	-9532
구만	-9533
▁움직여	-9534
▁시민들의	-9535
▁관세를	-9536
▁본인이	-9537
▁드라마	-9538
▁업무협약을	-9539
함은	-9540
▁종종	-9541
▁데는	-9542
▁짓는	-9543
▁LED	-9544
▁역사적	-9545
▁휠	-9546
▁추산	-9547
▁쿡	-9548
▁산정	-9549
▁치러	-9550
▁AP	-9551
▁잊고	-9552
▁정한	-9553
▁안철수	-9554
용으로	-9555
ew	-9556
ig	-9557
▁세계를	-9558
▁계신	-9559
▁시작하는	-9560
▁상한	-9561
▁군사적	-9562
▁높고	-9563
▁감소한	-9564
▁중소벤처기업	-9565
파에	-9566
글로	-9567
▁장식	-9568
▁반쯤	-9569
▁연동	-9570
▁선보이는	-9571
▁유용	-9572
▁준수	-9573
스포	-9574
네가	-9575
▁선택할	-9576
체육관광	-9577
었는지	-9578
▁2002	-9579
▁이민	-9580
베이터	-9581
▁잡을	-9582
▁쵕	-9583
▁전체를	-9584
▁도착한	-9585
▁구속영장을	-9586
▁스탠	-9587
▁겪는	-9588
▁오른쪽	-9589
르크	-9590
48	-9591
▁최악의	-9592
▁전에는	-9593
▁이야기는	-9594
▁얇	-9595
▁휩싸	-9596
차량	-9597
▁행동에	-9598
▁기다리는	-9599
▁생각하	-9600
▁헌법재판	-9601
▁멈추고	-9602
▁경력	-9603
▁윞	-9604
▁고마워	-9605
▁다가갔다	-9606
▁횡령	-9607
단말	-9608
▁이집	-9609
되기도	-9610
▁영등포	-9611
▁아이디	-9612
백을	-9613
▁평화를	-9614
▁떼어	-9615
▁가족이	-9616
▁주무	-9617
▁수혜	-9618
▁담보	-9619
▁나누고	-9620
▁젤	-9621
▁캄	-9622
프레	-9623
들여	-9624
▁도서	-9625
▁힘으로	-9626
▁하하하	-9627
▁구성됐다	-9628
▁조건을	-9629
▁여기저기	-9630
▁한창	-9631
▁측의	-9632
공급	-9633
우지	-9634
▁대부분이	-9635
▁쌓아	-9636
바이트	-9637
진한	-9638
▁대다	-9639
▁국제사회	-9640
▁필요할	-9641
되어야	-9642
▁자신과	-9643
▁불량	-9644
▁막고	-9645
면의	-9646
▁청와대가	-9647
▁지리	-9648
▁내어	-9649
리포	-9650
▁여객	-9651
38	-9652
▁말이오	-9653
▁li	-9654
▁저택	-9655
기관의	-9656
▁해군	-9657
▁어조로	-9658
▁자네가	-9659
▁뒤집어	-9660
▁미처	-9661
▁주민들의	-9662
이도	-9663
바다	-9664
▁탄핵	-9665
▁본사	-9666
▁비싼	-9667
▁서울중앙지검	-9668
▁번역	-9669
▁앞세	-9670
▁실효	-9671
▁비율이	-9672
▁빌어먹을	-9673
▁전사	-9674
▁일반적으로	-9675
▁잇는	-9676
▁이놈	-9677
▁제품이	-9678
▁밑에	-9679
▁신축	-9680
▁무지	-9681
▁나서고	-9682
▁몬스터	-9683
▁듯했다	-9684
▁이혼	-9685
▁통화에서	-9686
중심	-9687
▁최우수	-9688
▁왜곡	-9689
▁강도	-9690
호에	-9691
명에서	-9692
▁무산	-9693
▁원천	-9694
프의	-9695
▁사후	-9696
▁분들이	-9697
▁파워	-9698
▁냄새가	-9699
▁보고는	-9700
▁후에는	-9701
▁me	-9702
시에는	-9703
나서	-9704
▁촡쐑	-9705
테니	-9706
▁상의	-9707
▁다루	-9708
▁비용이	-9709
▁지역경제	-9710
▁피어	-9711
▁스웨	-9712
▁이용자	-9713
▁전체적으로	-9714
▁사모	-9715
는지도	-9716
▁편입	-9717
중을	-9718
▁되었을	-9719
리케이션	-9720
▁읽음	-9721
▁오랜만에	-9722
▁해결할	-9723
▁밴드데이터	-9724
▁상반	-9725
▁해볼	-9726
▁전무	-9727
▁의문	-9728
▁관절	-9729
법의	-9730
▁퇴근	-9731
▁LH	-9732
▁반사	-9733
▁어렵다는	-9734
▁마련된	-9735
▁마른	-9736
▁짙은	-9737
▁가능성	-9738
시스템을	-9739
폭을	-9740
▁켈	-9741
▁극단	-9742
▁첫날	-9743
편이	-9744
ab	-9745
▁그렇고	-9746
▁04	-9747
▁모범	-9748
▁노력이	-9749
상한	-9750
▁나타날	-9751
▁없던	-9752
▁검이	-9753
▁하얗	-9754
▁통증	-9755
치면서	-9756
▁투자가	-9757
▁타입	-9758
▁삼성물	-9759
▁주춤	-9760
▁면담	-9761
금의	-9762
▁묵묵히	-9763
미니	-9764
▁윗	-9765
▁도출	-9766
▁위생	-9767
▁협력해	-9768
▁드러냈다	-9769
▁스쳐	-9770
▁실시한다	-9771
▁의류	-9772
현실	-9773
▁용의	-9774
음악	-9775
▁모은	-9776
▁움찔	-9777
▁성명을	-9778
▁색깔	-9779
▁03	-9780
▁게재	-9781
▁어쩐지	-9782
소시	-9783
▁몸의	-9784
▁기록을	-9785
▁간접	-9786
▁박원	-9787
▁븸	-9788
▁마크	-9789
▁강화할	-9790
▁먹은	-9791
▁130	-9792
납부	-9793
▁다수의	-9794
▁이리저리	-9795
통합	-9796
▁임기	-9797
▁짐승	-9798
▁갑질	-9799
▁마련한	-9800
▁궤	-9801
연맹	-9802
▁완벽한	-9803
▁저축	-9804
▁돌연	-9805
▁나은	-9806
▁상관없이	-9807
실장은	-9808
둥이	-9809
▁치열한	-9810
▁부총리는	-9811
▁대립	-9812
▁예쁘	-9813
▁꼼짝	-9814
▁조사한	-9815
▁너무나도	-9816
▁sp	-9817
▁인물이	-9818
▁마스크	-9819
▁헤어	-9820
▁주위에	-9821
▁전반에	-9822
▁판매가	-9823
▁규모다	-9824
▁문건	-9825
▁플러스	-9826
▁방안이	-9827
▁군의	-9828
▁씽	-9829
▁목포	-9830
오지	-9831
▁금호타이어	-9832
▁CCTV	-9833
▁넘어가	-9834
▁부정적인	-9835
▁지났	-9836
밀하게	-9837
▁세계에	-9838
▁독특한	-9839
▁내보	-9840
▁포함됐다	-9841
▁87	-9842
▁소년은	-9843
람회	-9844
▁미소가	-9845
▁버튼	-9846
유가	-9847
▁밸	-9848
▁했어	-9849
▁쓸데	-9850
▁갖다	-9851
▁혜택이	-9852
▁스키	-9853
▁필요성을	-9854
▁아무튼	-9855
▁초고	-9856
▁용역	-9857
▁메디	-9858
▁회수	-9859
ack	-9860
▁있었어	-9861
편에	-9862
▁시가총액	-9863
▁유혹	-9864
▁성사	-9865
▁와인	-9866
▁금액을	-9867
▁검찰의	-9868
▁종류의	-9869
▁시대의	-9870
조트	-9871
▁학생들은	-9872
▁전쟁을	-9873
▁내밀었다	-9874
자문	-9875
해서는	-9876
▁광화문	-9877
▁조세	-9878
▁요인이	-9879
뉴얼	-9880
하우스	-9881
▁매출은	-9882
▁확보한	-9883
▁엠	-9884
▁곧장	-9885
▁뒤늦게	-9886
페이	-9887
리라는	-9888
▁장면	-9889
▁어렵게	-9890
▁이른다	-9891
▁장례	-9892
▁법무부	-9893
▁빨라	-9894
▁선포	-9895
하였고	-9896
▁자국	-9897
조작	-9898
▁것이지	-9899
인식	-9900
▁한국에서	-9901
이지요	-9902
▁작전	-9903
웃음을	-9904
▁아웃	-9905
혜택	-9906
▁사물인터넷	-9907
▁저희가	-9908
▁중립	-9909
▁my	-9910
▁모았다	-9911
▁패키지	-9912
▁신약	-9913
있습니다	-9914
▁돌아서	-9915
▁기관은	-9916
▁복용	-9917
▁그대는	-9918
해달라고	-9919
점의	-9920
▁반가	-9921
▁그러다	-9922
▁요소	-9923
▁보고서를	-9924
▁전의	-9925
▁업체가	-9926
▁주한미	-9927
인들을	-9928
했어요	-9929
▁농림	-9930
▁티월드	-9931
▁에코	-9932
질러	-9933
라이트	-9934
▁금감원	-9935
터가	-9936
▁픽업	-9937
무지	-9938
▁뚫고	-9939
▁음성으로	-9940
▁신라	-9941
▁포트	-9942
찰을	-9943
강을	-9944
▁고기	-9945
▁유튜브	-9946
▁맺고	-9947
▁때문이	-9948
예정	-9949
▁위기를	-9950
▁완공	-9951
▁에어컨	-9952
지대	-9953
▁법을	-9954
▁하거나	-9955
언을	-9956
▁라니	-9957
▁무엇인지	-9958
▁책상	-9959
▁신규가입	-9960
▁le	-9961
측은	-9962
▁부합	-9963
▁인증을	-9964
▁만성	-9965
▁유연	-9966
여성	-9967
원까지	-9968
▁진출을	-9969
맞춤	-9970
▁지키는	-9971
▁늦은	-9972
간이	-9973
▁뭐라	-9974
▁전산	-9975
▁건데	-9976
▁유리한	-9977
▁제이	-9978
폈다	-9979
상환	-9980
▁맞으	-9981
▁개최한다	-9982
▁유관	-9983
금과	-9984
▁남을	-9985
▁모른다는	-9986
▁무덤	-9987
▁감당	-9988
▁소문	-9989
▁들어서는	-9990
▁슬로	-9991
▁적당	-9992
▁사업자	-9993
▁어우	-9994
▁개최했다	-9995
▁시설을	-9996
▁새삼	-9997
▁합산	-9998
▁조합원	-9999
▁미쳤	-10000
▁위기에	-10001
▁줄은	-10002
▁소리는	-10003
사업의	-10004
▁말대로	-10005
SD	-10006
▁읽고	-10007
▁계곡	-10008
▁안된다	-10009
▁논의할	-10010
▁않으며	-10011
▁오로지	-10012
▁바뀐	-10013
▁얘기다	-10014
▁피의자	-10015
▁그중	-10016
유치	-10017
▁수거	-10018
▁위치를	-10019
▁지적도	-10020
▁붓	-10021
▁희망을	-10022
▁감안하면	-10023
▁구름	-10024
▁씁	-10025
▁태도	-10026
▁중대한	-10027
▁좁은	-10028
▁추이를	-10029
▁갈등을	-10030
▁퍼져	-10031
▁서울중앙지법	-10032
▁전당	-10033
▁공군	-10034
▁미성	-10035
리도	-10036
학습	-10037
▁과일	-10038
▁말라고	-10039
▁이상하게	-10040
▁입가에	-10041
루가	-10042
▁론칭	-10043
▁이걸	-10044
▁분당	-10045
▁준비가	-10046
▁한계가	-10047
▁보행	-10048
▁외침	-10049
▁뛰어넘	-10050
롭고	-10051
▁했지	-10052
▁훑	-10053
▁배정	-10054
▁구조를	-10055
▁행사가	-10056
▁움직임이	-10057
▁안의	-10058
▁유지되고	-10059
▁후배	-10060
ass	-10061
▁계획이	-10062
▁재판을	-10063
습니	-10064
▁선착	-10065
39	-10066
▁성향	-10067
주의를	-10068
▁월드컵	-10069
▁서울에서	-10070
▁국회에	-10071
▁시민의	-10072
풍을	-10073
시설이	-10074
▁훈련을	-10075
▁견디	-10076
▁꿰	-10077
오던	-10078
었으나	-10079
▁구해	-10080
▁이승	-10081
아트	-10082
▁나갔	-10083
▁탈출	-10084
▁86	-10085
▁쓰던	-10086
움과	-10087
▁브랜드를	-10088
▁차지하고	-10089
▁세우고	-10090
▁지향	-10091
국장은	-10092
▁자체를	-10093
▁귀가	-10094
▁꾀	-10095
one	-10096
▁납치	-10097
내려	-10098
▁심장이	-10099
돌이	-10100
▁뱃	-10101
▁석탄	-10102
▁글에	-10103
▁퍽	-10104
기간이	-10105
▁기반의	-10106
▁제기됐다	-10107
▁매매의견	-10108
▁강남구	-10109
회장	-10110
창을	-10111
▁건강을	-10112
▁일곱	-10113
▁08	-10114
▁그놈	-10115
▁아무렇	-10116
▁소비자들의	-10117
▁유지할	-10118
본부장은	-10119
▁서비스는	-10120
작권	-10121
채널	-10122
전시	-10123
▁쑥	-10124
▁뱉	-10125
▁성장할	-10126
▁기업으로	-10127
있고	-10128
▁의식을	-10129
족의	-10130
버렸	-10131
옷을	-10132
▁가능하고	-10133
▁실은	-10134
ation	-10135
네임	-10136
선과	-10137
▁해운대	-10138
두는	-10139
처가	-10140
▁진실	-10141
▁패러	-10142
▁끼고	-10143
▁유진	-10144
▁늘어나는	-10145
브랜드	-10146
▁성공을	-10147
co	-10148
이노	-10149
▁키즈	-10150
▁엄마가	-10151
▁본능	-10152
▁계시	-10153
▁나가고	-10154
▁식물	-10155
▁어렵다고	-10156
▁1500	-10157
▁정보는	-10158
▁훌쩍	-10159
▁불길	-10160
▁영세	-10161
▁거세	-10162
▁여론조사	-10163
▁서버	-10164
▁조항	-10165
나이	-10166
▁매수의	-10167
▁발생하지	-10168
▁유사한	-10169
폭력	-10170
▁좋게	-10171
층을	-10172
▁개발해	-10173
▁놀이	-10174
▁보여주고	-10175
▁아랫	-10176
▁그림을	-10177
▁취약계층	-10178
▁성공했다	-10179
▁테크	-10180
▁해석이	-10181
ere	-10182
▁견딜	-10183
▁적도	-10184
양은	-10185
▁이후에도	-10186
▁소중	-10187
▁조용한	-10188
▁경악	-10189
▁좋다고	-10190
▁출시한	-10191
▁생각한다고	-10192
▁거리는	-10193
▁기를	-10194
▁이뤄지지	-10195
▁썰	-10196
▁해안	-10197
▁떨어질	-10198
▁일행은	-10199
계로	-10200
며시	-10201
NG	-10202
▁독점	-10203
▁체결했다	-10204
▁삼성전자가	-10205
나갔다	-10206
▁지나가	-10207
▁가수	-10208
▁로스	-10209
▁2004	-10210
고의	-10211
▁목격	-10212
▁적어	-10213
▁불만	-10214
▁아이들은	-10215
▁사내는	-10216
▁내심	-10217
▁쥐어	-10218
▁유예	-10219
▁되돌	-10220
정보를	-10221
▁간단히	-10222
▁친절	-10223
▁구미	-10224
▁순수	-10225
▁미치	-10226
자로서	-10227
▁의지가	-10228
유산	-10229
▁밥을	-10230
축산	-10231
▁엇갈	-10232
렌은	-10233
▁예쁜	-10234
▁수습	-10235
▁양자	-10236
▁국가정보	-10237
▁중년	-10238
▁올린이	-10239
▁투덜	-10240
ace	-10241
▁구매를	-10242
인들	-10243
할때	-10244
▁장기간	-10245
비서	-10246
▁상태였다	-10247
▁인명	-10248
▁앞으로는	-10249
▁산책	-10250
▁주가는	-10251
익을	-10252
▁다음으로	-10253
▁바람직	-10254
OC	-10255
▁서울시장	-10256
▁사내가	-10257
▁명의자	-10258
안내	-10259
▁뭶	-10260
▁사립	-10261
▁깊숙	-10262
코는	-10263
▁업체인	-10264
▁싶다는	-10265
▁정보가	-10266
▁지적이다	-10267
▁째	-10268
▁전파	-10269
드리면	-10270
▁발표할	-10271
▁선정해	-10272
연구원은	-10273
▁인천공항	-10274
▁내년도	-10275
레이션	-10276
▁틀림없이	-10277
▁날을	-10278
▁위주로	-10279
▁반등	-10280
디션	-10281
▁아니지	-10282
▁얘기가	-10283
밀리	-10284
▁6000	-10285
오염	-10286
▁그러다가	-10287
▁2001	-10288
길래	-10289
▁파라	-10290
▁두근	-10291
▁줄기	-10292
▁소음	-10293
▁오면	-10294
중이다	-10295
블릿	-10296
▁새해	-10297
▁없으며	-10298
▁이슬람	-10299
▁라디오	-10300
▁플랫폼을	-10301
▁태어	-10302
▁국산	-10303
▁국토부	-10304
▁주장하는	-10305
라인을	-10306
▁하도록	-10307
▁SF	-10308
줄이	-10309
▁그토록	-10310
▁커질	-10311
▁받아보	-10312
▁불구속	-10313
▁기다리	-10314
▁넋	-10315
이요	-10316
▁않은가	-10317
▁부를	-10318
▁이례	-10319
▁줄일	-10320
▁재개발	-10321
▁위험을	-10322
▁잠정	-10323
심과	-10324
▁전달했다	-10325
업계에	-10326
▁팝	-10327
▁출시된	-10328
▁약을	-10329
▁찼	-10330
협상	-10331
▁힘들어	-10332
▁지붕	-10333
▁도박	-10334
▁카드를	-10335
▁do	-10336
▁인테리어	-10337
대회를	-10338
▁카알	-10339
▁농가	-10340
▁조언했다	-10341
▁튼	-10342
청정	-10343
me	-10344
▁그보다	-10345
하겠다며	-10346
▁안은	-10347
▁베스트	-10348
▁기념해	-10349
▁버리는	-10350
선수	-10351
빛을	-10352
▁왕이	-10353
▁책정	-10354
▁문제와	-10355
▁당의	-10356
▁대표를	-10357
▁여신	-10358
▁모인	-10359
▁모조리	-10360
▁국내에	-10361
▁다채	-10362
트롤	-10363
▁생각하며	-10364
▁입지	-10365
▁촌	-10366
▁역임	-10367
▁포괄	-10368
대며	-10369
▁두산	-10370
▁신형	-10371
▁버리	-10372
▁캠페인	-10373
아시아	-10374
▁고객들이	-10375
▁아이들의	-10376
▁수호	-10377
니의	-10378
▁아기	-10379
▁가득한	-10380
동맹	-10381
그룹이	-10382
▁굶	-10383
▁조치가	-10384
▁황급히	-10385
▁음주	-10386
대기	-10387
▁항공기	-10388
▁번째로	-10389
▁주방	-10390
▁비핵화를	-10391
▁발로	-10392
강의	-10393
▁재해	-10394
▁들리는	-10395
▁가족포인트	-10396
▁후보의	-10397
운동을	-10398
▁탕	-10399
▁아니에요	-10400
▁넉	-10401
▁철회	-10402
▁달래	-10403
▁국토부는	-10404
푸드	-10405
▁유망	-10406
▁쿵	-10407
▁지분을	-10408
▁증가할	-10409
▁경찰청	-10410
▁때보다	-10411
▁롱	-10412
▁감았다	-10413
학년도	-10414
▁벌인	-10415
▁주문했다	-10416
▁편하게	-10417
▁내버려	-10418
▁최고경영	-10419
▁제로	-10420
▁적용한	-10421
▁제공되는	-10422
▁경쟁이	-10423
올랐다	-10424
▁band	-10425
▁타당	-10426
▁이어가고	-10427
▁닦아	-10428
▁젖은	-10429
▁콘셉	-10430
▁쪽이	-10431
▁발자	-10432
▁느끼지	-10433
▁내쉬었다	-10434
▁수색	-10435
▁판결을	-10436
▁파악하고	-10437
▁적의	-10438
▁줄이고	-10439
▁텐	-10440
▁위법	-10441
길로	-10442
거리가	-10443
▁꺼냈다	-10444
▁눈치를	-10445
▁급격히	-10446
정지	-10447
▁빛나는	-10448
▁파손	-10449
▁젊은이	-10450
매물	-10451
피아	-10452
▁논란을	-10453
▁방침을	-10454
▁병원에	-10455
▁당국은	-10456
▁이루고	-10457
▁촻	-10458
▁파란	-10459
▁경남도	-10460
▁1999	-10461
▁잠수	-10462
▁쳐다보고	-10463
▁침입	-10464
▁퉁	-10465
▁특성을	-10466
콘텐츠	-10467
▁수차례	-10468
▁남긴	-10469
▁주제에	-10470
▁프로젝트를	-10471
심에	-10472
세와	-10473
▁달러를	-10474
▁예정이며	-10475
▁나빠	-10476
▁힘껏	-10477
▁중이라고	-10478
▁준비해	-10479
바닥에	-10480
▁크기	-10481
▁성공한	-10482
▁의외로	-10483
▁적합한	-10484
▁있으므로	-10485
▁나뭇	-10486
업에	-10487
버리는	-10488
▁희미	-10489
▁큐	-10490
▁쏟아져	-10491
▁주변의	-10492
▁구제	-10493
과정에서	-10494
뿐이었다	-10495
▁살기	-10496
▁계속될	-10497
▁사업으로	-10498
▁차려	-10499
주주	-10500
▁바가	-10501
▁중점	-10502
▁구축을	-10503
▁출시했다	-10504
월말	-10505
▁리더십	-10506
▁아모	-10507
순위	-10508
▁지원해	-10509
▁중국에서	-10510
▁좋고	-10511
▁댾	-10512
국인	-10513
▁유전자	-10514
▁상시	-10515
▁순이익	-10516
나라는	-10517
▁조율	-10518
▁이사장은	-10519
브는	-10520
희가	-10521
▁권한을	-10522
▁주변을	-10523
▁연계해	-10524
머스	-10525
▁AR	-10526
▁확보를	-10527
매매	-10528
▁알아차	-10529
▁경찰의	-10530
▁빛의	-10531
ant	-10532
을때	-10533
▁흘리며	-10534
▁협력업체	-10535
▁내정	-10536
▁위해선	-10537
▁음성이	-10538
▁필요로	-10539
▁귀국	-10540
하였습니다	-10541
▁질의	-10542
▁고집	-10543
으론	-10544
▁집중적으로	-10545
▁과거의	-10546
▁이후로	-10547
▁집행유예	-10548
▁본질	-10549
▁대표이사	-10550
▁추측	-10551
벽을	-10552
▁나노	-10553
▁회담을	-10554
▁일반적인	-10555
▁said	-10556
▁의하면	-10557
투를	-10558
터는	-10559
▁장병	-10560
▁정도다	-10561
▁계단	-10562
스트는	-10563
응하는	-10564
교사	-10565
▁세금을	-10566
▁의원을	-10567
으러	-10568
▁살충	-10569
▁위소	-10570
▁막대한	-10571
▁따위	-10572
▁실정	-10573
▁신재생	-10574
론은	-10575
▁치는	-10576
노조	-10577
▁바쁘	-10578
▁급락	-10579
곳에서	-10580
대인	-10581
▁제공됩니다	-10582
하더니	-10583
▁투입해	-10584
회계	-10585
진단	-10586
▁모델로	-10587
▁잡는	-10588
▁서비스가	-10589
▁마약	-10590
▁1599	-10591
▁입이	-10592
▁얌	-10593
▁전술	-10594
▁이유다	-10595
ose	-10596
종목	-10597
▁캔	-10598
▁관점에서	-10599
라디	-10600
▁정통	-10601
검토	-10602
▁수험생	-10603
▁무역전쟁	-10604
▁중개	-10605
▁백성	-10606
▁레스토	-10607
▁되풀이	-10608
▁정치권	-10609
▁불과하다	-10610
전형	-10611
▁조사에서	-10612
▁기지	-10613
맞은	-10614
▁우승	-10615
누리	-10616
▁한글	-10617
▁하신	-10618
▁연루	-10619
▁돌아보았다	-10620
▁애를	-10621
베이션	-10622
ul	-10623
짓을	-10624
▁도입을	-10625
▁깨달았다	-10626
▁정례	-10627
▁놓인	-10628
▁발전에	-10629
▁생성	-10630
이니까	-10631
▁단위	-10632
▁로드맵	-10633
▁안전하게	-10634
▁불만을	-10635
눈에	-10636
▁서구	-10637
▁트럭	-10638
▁꿈꾸	-10639
▁해줄	-10640
▁반대하는	-10641
▁연수	-10642
▁지켜보	-10643
▁강서	-10644
▁상승세를	-10645
▁갓	-10646
의로	-10647
▁개장	-10648
답게	-10649
▁밻	-10650
▁고스	-10651
패를	-10652
▁오해	-10653
▁지역으로	-10654
▁하시는	-10655
▁더블	-10656
자들과	-10657
▁남궁	-10658
▁구체적	-10659
되게	-10660
▁합류	-10661
▁찔러	-10662
▁교육부는	-10663
스피	-10664
왔습니다	-10665
▁치유	-10666
▁각자	-10667
▁럭	-10668
▁쫨	-10669
▁우체	-10670
▁끝으로	-10671
▁싶은데	-10672
▁스튜디오	-10673
학의	-10674
▁기술과	-10675
▁주체	-10676
ry	-10677
느니	-10678
▁다문화	-10679
▁아이들을	-10680
▁답변을	-10681
면에서	-10682
▁아니오	-10683
▁계단을	-10684
▁불안한	-10685
▁이가	-10686
▁배후	-10687
▁단지는	-10688
▁컵	-10689
자신의	-10690
▁사무실	-10691
▁없으	-10692
물과	-10693
▁롯데마트	-10694
▁외국인이	-10695
▁시작할	-10696
▁탄도미사일	-10697
▁말레이	-10698
안정	-10699
▁그늘	-10700
▁몸으로	-10701
▁묘한	-10702
▁않겠다는	-10703
▁젖어	-10704
▁시위	-10705
▁마음대로	-10706
▁걸어가	-10707
▁넣었다	-10708
▁우리도	-10709
▁수치다	-10710
적이었다	-10711
▁소식이	-10712
▁부착	-10713
▁대중교통	-10714
자유	-10715
▁예전에	-10716
▁활동에	-10717
▁신한금융	-10718
▁타격을	-10719
▁사각	-10720
▁앱을	-10721
▁되었습니다	-10722
▁but	-10723
▁뺀	-10724
액의	-10725
▁선고했다	-10726
▁세계적으로	-10727
▁장관의	-10728
▁기름	-10729
▁떠날	-10730
▁펫네임	-10731
▁by	-10732
▁과징	-10733
▁똑같이	-10734
▁으음	-10735
▁사라지고	-10736
쉽게	-10737
▁갱	-10738
▁직면	-10739
▁되어서	-10740
▁아니냐	-10741
배가	-10742
일리	-10743
▁도둑	-10744
건만	-10745
▁미치지	-10746
▁하려는	-10747
▁j	-10748
▁각별	-10749
제품을	-10750
▁재수	-10751
▁추가지원금	-10752
▁실시간으로	-10753
▁성공적인	-10754
▁과장	-10755
▁실력	-10756
는지는	-10757
▁입건	-10758
▁본회의	-10759
▁학생이	-10760
▁이시	-10761
조원을	-10762
소방	-10763
대변	-10764
루미	-10765
▁놀라서	-10766
▁골라	-10767
인데요	-10768
▁도중	-10769
▁떨고	-10770
▁생태계	-10771
▁왕자	-10772
▁뜻밖	-10773
네트워크	-10774
▁기온이	-10775
해주고	-10776
유플러	-10777
▁대입	-10778
화되고	-10779
▁눕	-10780
▁바위	-10781
▁주목을	-10782
▁싹	-10783
월한	-10784
▁다리가	-10785
▁개관	-10786
스턴	-10787
▁채무	-10788
▁해주시면	-10789
▁이통	-10790
▁성분	-10791
▁끝나고	-10792
씨에	-10793
▁발견된	-10794
▁깨어	-10795
세트	-10796
▁산업의	-10797
▁바짝	-10798
에다	-10799
되거나	-10800
매김	-10801
원들은	-10802
▁귀여운	-10803
▁맞춘	-10804
▁월정	-10805
지상	-10806
▁개시	-10807
▁남기	-10808
▁못하면	-10809
▁기분을	-10810
▁셔츠	-10811
▁공고	-10812
임에도	-10813
▁법조	-10814
▁작용할	-10815
신용	-10816
루의	-10817
▁안다	-10818
▁조그만	-10819
▁전라	-10820
럽고	-10821
어리	-10822
▁갈등이	-10823
▁국방부는	-10824
▁멘토	-10825
▁쌓여	-10826
▁뭣	-10827
▁낡은	-10828
▁제네	-10829
지원센터	-10830
▁up	-10831
▁적폐청	-10832
▁자리매김	-10833
만원이	-10834
문에서	-10835
▁예비후보	-10836
▁아이들	-10837
▁주사	-10838
곳의	-10839
▁이룬	-10840
라스틱	-10841
▁이어서	-10842
표가	-10843
PC	-10844
▁개선에	-10845
▁위치해	-10846
▁져	-10847
▁국가가	-10848
▁소비자가	-10849
▁해피	-10850
법과	-10851
층이	-10852
▁범위를	-10853
▁어울리는	-10854
사례	-10855
▁아르바이트	-10856
▁기독	-10857
TF	-10858
▁되었고	-10859
▁현실을	-10860
▁수강	-10861
▁어디까지	-10862
▁순천	-10863
▁이로써	-10864
▁우유	-10865
▁피아	-10866
▁중요하다고	-10867
신한	-10868
였다는	-10869
▁익숙한	-10870
▁평가가	-10871
▁자기를	-10872
▁이곳을	-10873
텔레콤은	-10874
있는데	-10875
▁메인	-10876
▁강동	-10877
정비	-10878
▁일어섰다	-10879
었어요	-10880
▁나고	-10881
▁걸어갔다	-10882
이치	-10883
▁보여준	-10884
▁존재를	-10885
과를	-10886
▁190	-10887
▁일이라고	-10888
▁나타내고	-10889
▁사안	-10890
▁놈을	-10891
▁손해배	-10892
▁상대를	-10893
명도	-10894
▁신비	-10895
▁꾸며	-10896
▁말하자면	-10897
▁회사를	-10898
하길	-10899
▁마신	-10900
▁당황한	-10901
▁폭로	-10902
▁업그	-10903
▁소문이	-10904
▁cl	-10905
▁같아요	-10906
▁IS	-10907
령의	-10908
▁설치해	-10909
▁문화체육관광	-10910
▁뜨거	-10911
▁장악	-10912
▁짐을	-10913
자나	-10914
▁유형	-10915
▁참모	-10916
▁유선	-10917
하는지	-10918
요청	-10919
▁착공	-10920
▁쿨	-10921
▁배운	-10922
▁총리가	-10923
▁갸웃	-10924
▁대여	-10925
▁규정을	-10926
▁한반도의	-10927
▁바꾸는	-10928
▁최순	-10929
▁흔들었다	-10930
란다	-10931
▁끌었다	-10932
년으로	-10933
▁비전	-10934
▁넘치는	-10935
임에	-10936
▁사외	-10937
▁방문객	-10938
▁요구하고	-10939
▁깡	-10940
그리	-10941
▁펼치고	-10942
▁무섭게	-10943
▁인력을	-10944
▁기억을	-10945
▁목표주가는	-10946
▁출국	-10947
▁임직	-10948
센트	-10949
▁부풀	-10950
▁집어넣	-10951
▁죽이고	-10952
나지	-10953
지역에	-10954
통은	-10955
개월로	-10956
▁실시하고	-10957
달라	-10958
▁믿는	-10959
▁지시를	-10960
▁발령	-10961
▁같지	-10962
▁고쳐	-10963
▁식탁	-10964
러는	-10965
▁태평양	-10966
▁증정한다	-10967
혁이	-10968
▁지르며	-10969
▁여는	-10970
▁사태를	-10971
▁from	-10972
부품	-10973
▁성격이	-10974
▁윤리	-10975
▁여부에	-10976
▁가기	-10977
▁식약	-10978
▁사고로	-10979
자다	-10980
▁감동	-10981
개는	-10982
원인	-10983
▁한진	-10984
▁개정안을	-10985
▁물음에	-10986
▁간담회에서	-10987
▁사이를	-10988
세권	-10989
▁부정적	-10990
▁건전한	-10991
▁영업이익은	-10992
러리	-10993
▁활짝	-10994
▁만나고	-10995
▁손가락으로	-10996
▁턱을	-10997
위해	-10998
▁사실이다	-10999
▁백작	-11000
▁전인	-11001
▁반영한	-11002
▁저지른	-11003
혁은	-11004
▁웰	-11005
▁신청할	-11006
공학	-11007
운을	-11008
▁상봉	-11009
▁62	-11010
싶은	-11011
▁재벌	-11012
▁바르	-11013
내어	-11014
련의	-11015
▁연상	-11016
▁시체	-11017
▁노인은	-11018
변을	-11019
▁정유	-11020
▁거리에	-11021
▁전체의	-11022
말고	-11023
▁공영	-11024
▁범위	-11025
▁장수	-11026
▁견인	-11027
▁슬픈	-11028
▁반박했다	-11029
티스	-11030
▁한두	-11031
▁청문	-11032
부부	-11033
▁손상	-11034
▁나타내는	-11035
념을	-11036
▁발간	-11037
▁편안한	-11038
▁전체가	-11039
▁있단	-11040
▁여지가	-11041
▁번거	-11042
▁막혀	-11043
겠네	-11044
▁고려하면	-11045
▁노하우를	-11046
체제	-11047
▁올해도	-11048
▁비례	-11049
▁공사를	-11050
▁싸움을	-11051
▁지나가는	-11052
▁공간이	-11053
▁과정이	-11054
층으로	-11055
▁수사가	-11056
▁총수	-11057
▁고양이	-11058
▁이겨	-11059
▁확인되지	-11060
PG	-11061
▁뒷모	-11062
▁담았다	-11063
▁편리하게	-11064
▁의장은	-11065
▁자를	-11066
▁신속한	-11067
▁자부	-11068
▁벌였다	-11069
▁73	-11070
내에	-11071
▁구는	-11072
박스	-11073
▁언제까지	-11074
▁거래가	-11075
▁밀양	-11076
▁무표	-11077
시픽	-11078
주식	-11079
▁했다며	-11080
개에	-11081
▁두루	-11082
▁비싸	-11083
▁진주	-11084
ight	-11085
▁원자력	-11086
▁사람들도	-11087
바지	-11088
용을	-11089
▁해체	-11090
▁배포	-11091
▁차관	-11092
▁로그	-11093
▁낯선	-11094
▁경호	-11095
▁드물	-11096
▁머리카락을	-11097
▁시골	-11098
▁비춰	-11099
내에서	-11100
▁플라	-11101
▁레스토랑	-11102
▁기다렸다	-11103
▁추경	-11104
▁말레이시아	-11105
75	-11106
▁길은	-11107
▁산학	-11108
▁독서	-11109
지역의	-11110
▁좋습니다	-11111
▁동행	-11112
▁베르	-11113
▁정상화	-11114
피를	-11115
▁3.	-11116
▁큖	-11117
▁두번째	-11118
▁우리들은	-11119
▁치킨	-11120
▁걷고	-11121
▁분명한	-11122
▁상태에	-11123
경찰서는	-11124
▁걸리는	-11125
▁한국인	-11126
▁가리키	-11127
▁근거로	-11128
▁중국인	-11129
▁미루	-11130
▁기업인	-11131
브를	-11132
▁단백	-11133
야의	-11134
장애인	-11135
▁어려움이	-11136
▁맞았다	-11137
▁의사가	-11138
▁포도	-11139
불이	-11140
▁가능성에	-11141
하되	-11142
▁보라	-11143
▁사태가	-11144
▁유지했다	-11145
트라	-11146
▁알리고	-11147
▁전월	-11148
▁이의	-11149
▁납득	-11150
▁본다면	-11151
▁스케	-11152
▁불편을	-11153
▁의혹에	-11154
▁과학기술정보통신	-11155
집에서	-11156
▁세상이	-11157
▁자리가	-11158
카르	-11159
▁계엄	-11160
▁기준이	-11161
▁시세	-11162
만원에서	-11163
▁요인	-11164
▁지사	-11165
▁언급한	-11166
▁커졌다	-11167
규제	-11168
▁노조는	-11169
▁지명	-11170
▁청원	-11171
▁하나하나	-11172
▁곳곳에서	-11173
▁굴러	-11174
▁괜찮은	-11175
▁목욕	-11176
▁현대모	-11177
▁이수	-11178
치와	-11179
▁서명	-11180
▁하남	-11181
▁불공정	-11182
▁어린애	-11183
하곤	-11184
▁믿지	-11185
▁해마다	-11186
▁경선	-11187
▁평가다	-11188
▁의회	-11189
▁적을	-11190
▁보고서	-11191
당과	-11192
▁실장은	-11193
위원장을	-11194
▁재료	-11195
▁대한민국의	-11196
더라면	-11197
차산업	-11198
▁번이나	-11199
모는	-11200
▁늘어나고	-11201
▁태블릿	-11202
▁김경수	-11203
▁연대	-11204
▁갖췄다	-11205
▁추정된다	-11206
▁씌	-11207
▁졌다	-11208
▁숙여	-11209
▁과기	-11210
▁추구하는	-11211
언이	-11212
▁받았다고	-11213
재의	-11214
▁시점에	-11215
▁관심과	-11216
▁노란	-11217
언은	-11218
▁발주	-11219
동조합	-11220
▁단행	-11221
▁올해부터	-11222
뚱한	-11223
▁대형마트	-11224
▁만났다	-11225
▁임차	-11226
▁존재하는	-11227
▁상품은	-11228
▁달려가	-11229
▁즐기	-11230
▁주의를	-11231
로만	-11232
▁아들을	-11233
▁난다	-11234
▁제품이다	-11235
▁통일부	-11236
▁국정농	-11237
▁서초구	-11238
적의	-11239
진에	-11240
▁구매하는	-11241
▁운영할	-11242
▁되길	-11243
▁등뒤	-11244
설계	-11245
▁짧게	-11246
▁해주는	-11247
사태	-11248
▁우리나라의	-11249
▁x	-11250
▁파는	-11251
환경을	-11252
해줄	-11253
ax	-11254
▁부친	-11255
▁요새	-11256
역과	-11257
터테인	-11258
▁참고로	-11259
▁김재	-11260
▁스파	-11261
▁돌리고	-11262
▁측근	-11263
▁미흡	-11264
▁은퇴	-11265
▁최대의	-11266
▁간편하게	-11267
막이	-11268
▁이어져	-11269
온의	-11270
▁다급	-11271
카가	-11272
▁다크	-11273
정부의	-11274
▁대략	-11275
접수	-11276
했지	-11277
▁김병	-11278
▁베네	-11279
히며	-11280
퍼스	-11281
▁바라보던	-11282
▁제임	-11283
▁인사청	-11284
▁춤을	-11285
▁1990	-11286
▁덥	-11287
▁착한	-11288
▁카운	-11289
▁적용할	-11290
▁안될	-11291
▁흠칫	-11292
▁의해서	-11293
쾌한	-11294
▁만든다	-11295
▁전방	-11296
▁실수	-11297
법원	-11298
▁민선	-11299
▁자원봉사	-11300
▁박차를	-11301
로서의	-11302
▁상대의	-11303
▁차마	-11304
▁의자	-11305
계약을	-11306
▁되면서	-11307
▁줄이는	-11308
▁청산	-11309
▁신고를	-11310
▁여긴	-11311
▁노력하고	-11312
▁주위의	-11313
▁육체	-11314
▁관할	-11315
▁김진	-11316
공사가	-11317
▁관련해서는	-11318
▁올릴	-11319
▁신동	-11320
▁2003	-11321
▁횟	-11322
▁시작됐다	-11323
▁깊게	-11324
▁매수에	-11325
▁쭉	-11326
지니어	-11327
▁정상적인	-11328
▁구직	-11329
운의	-11330
▁핀테크	-11331
▁수시로	-11332
▁부엌	-11333
▁국민들의	-11334
▁바쁜	-11335
▁성을	-11336
▁아나	-11337
▁오래된	-11338
▁확대하는	-11339
▁올해로	-11340
▁하드	-11341
▁시원한	-11342
▁품고	-11343
▁명예를	-11344
들께	-11345
▁풀려	-11346
cm	-11347
▁벤처기업	-11348
400	-11349
▁우아	-11350
ine	-11351
▁원망	-11352
담보	-11353
▁사실에	-11354
초를	-11355
▁업계의	-11356
▁받으면	-11357
▁온다	-11358
▁all	-11359
지던	-11360
▁무소	-11361
▁담당하는	-11362
▁해킹	-11363
▁선전	-11364
▁추가적인	-11365
▁재촉	-11366
600	-11367
▁현대모비스	-11368
▁물론이고	-11369
ich	-11370
▁은근	-11371
▁포함돼	-11372
▁감옥	-11373
▁놈들이	-11374
▁그런데도	-11375
▁근처에	-11376
▁유행	-11377
▁조성을	-11378
▁느끼게	-11379
▁얻었다	-11380
▁목표주가를	-11381
▁동영상	-11382
▁직접적인	-11383
▁케이블	-11384
다시피	-11385
▁투명한	-11386
▁조금이라도	-11387
OS	-11388
▁한결	-11389
만큼은	-11390
버트	-11391
▁뺸	-11392
▁불필	-11393
설명	-11394
▁재미있는	-11395
▁안타깝게도	-11396
▁마련하고	-11397
▁지난주	-11398
▁열리고	-11399
▁잎	-11400
▁인식을	-11401
▁범행을	-11402
▁설명하고	-11403
▁나직	-11404
▁해양수산	-11405
▁블랙리스트	-11406
▁길로	-11407
주셔서	-11408
할까	-11409
▁송도	-11410
▁프로세	-11411
다이렉트	-11412
▁염두에	-11413
▁위약금이	-11414
▁죄송하게도	-11415
거다	-11416
▁비정상	-11417
▁삼성전자의	-11418
▁것들을	-11419
▁멀티	-11420
▁사용하지	-11421
▁의미한다	-11422
▁노력할	-11423
한은	-11424
▁상속	-11425
▁그러지	-11426
▁최적의	-11427
▁회전	-11428
역으로	-11429
수기	-11430
스도	-11431
▁다가와	-11432
▁눈동자가	-11433
▁다이렉트샵	-11434
▁줄이	-11435
▁리포	-11436
부대	-11437
▁첩	-11438
▁대출을	-11439
시하는	-11440
마크	-11441
▁제기한	-11442
▁부천	-11443
구멍	-11444
▁표정은	-11445
개통	-11446
테니까	-11447
▁민주평화	-11448
점이다	-11449
자리를	-11450
보이는	-11451
▁자택	-11452
▁남성이	-11453
▁남아있는	-11454
이냐	-11455
▁타이어	-11456
▁투자의견을	-11457
편으로	-11458
▁미성년	-11459
▁세상에서	-11460
▁취한	-11461
제도를	-11462
▁this	-11463
▁사회에	-11464
▁아이스	-11465
▁이은	-11466
로직	-11467
▁연신	-11468
▁상기	-11469
▁장미	-11470
▁물품	-11471
▁잊어버	-11472
등이	-11473
▁들과	-11474
▁한차례	-11475
교가	-11476
▁드려	-11477
▁다가오	-11478
▁보고를	-11479
▁아이디어를	-11480
▁싫은	-11481
▁입맛	-11482
▁말과	-11483
▁이종	-11484
▁틸	-11485
▁턿	-11486
▁당신에게	-11487
시기	-11488
▁밀집	-11489
달을	-11490
▁일본은	-11491
▁박물	-11492
▁퀴	-11493
▁없소	-11494
▁마차	-11495
되지만	-11496
▁흔들어	-11497
수지	-11498
▁없나요	-11499
▁책은	-11500
▁나타나고	-11501
투어	-11502
▁빙긋	-11503
인치	-11504
았기	-11505
희의	-11506
▁죽인	-11507
▁불과했다	-11508
▁주유	-11509
어라	-11510
▁or	-11511
▁방식이다	-11512
디가	-11513
▁쉬었다	-11514
▁움켜쥐	-11515
관계가	-11516
▁영주	-11517
▁손은	-11518
▁푸틴	-11519
▁위장	-11520
▁끝날	-11521
도서관	-11522
▁남양	-11523
▁여성은	-11524
▁논의했다	-11525
▁발걸음을	-11526
조차도	-11527
마리	-11528
▁소년의	-11529
자산운용	-11530
레는	-11531
▁그랜드	-11532
▁선착순	-11533
▁순간에	-11534
▁지위를	-11535
▁공정한	-11536
▁제기했다	-11537
▁자리잡	-11538
일세	-11539
▁종로구	-11540
예방	-11541
해주셔야	-11542
▁하겠다는	-11543
▁학교에서	-11544
▁수술을	-11545
기관이	-11546
▁싼	-11547
▁품에	-11548
▁상실	-11549
란의	-11550
▁식은	-11551
▁여학생	-11552
▁여인	-11553
▁부회장이	-11554
▁con	-11555
▁성폭행	-11556
▁예상금액	-11557
린을	-11558
주면	-11559
▁운영에	-11560
▁떠나는	-11561
▁획기	-11562
먹는	-11563
▁의원과	-11564
▁있었으나	-11565
▁거대	-11566
▁팔아	-11567
▁밖의	-11568
▁휴식	-11569
▁지켜보고	-11570
▁요구한	-11571
▁대북제재	-11572
업종	-11573
합을	-11574
▁매니저	-11575
▁홈페이지에	-11576
유통	-11577
▁물러나	-11578
▁모양새	-11579
▁가계부채	-11580
▁확대에	-11581
▁어릴	-11582
th	-11583
공제	-11584
▁원칙을	-11585
▁폭으로	-11586
▁델	-11587
먹고	-11588
▁시기를	-11589
▁저출	-11590
▁다녔	-11591
보였다	-11592
▁휴대전화	-11593
사무소	-11594
▁차량이	-11595
▁여름철	-11596
▁형은	-11597
▁공기청정	-11598
▁속에서도	-11599
▁치밀	-11600
해야만	-11601
▁잠겨	-11602
▁선거에	-11603
워진	-11604
▁따져	-11605
년은	-11606
▁모습이었다	-11607
▁대통령에	-11608
였을	-11609
음은	-11610
▁죄를	-11611
구니	-11612
▁대목	-11613
▁복수	-11614
▁증오	-11615
▁캠페인을	-11616
▁무장	-11617
▁감면	-11618
▁쇄	-11619
▁휴게	-11620
▁선물을	-11621
▁찍어	-11622
회관	-11623
▁내용으로	-11624
▁농민	-11625
▁통행	-11626
록을	-11627
▁동양	-11628
▁61	-11629
▁세상의	-11630
▁알파	-11631
▁확립	-11632
▁균형을	-11633
▁소수	-11634
▁아니라면	-11635
▁체계를	-11636
▁애니	-11637
▁부모님	-11638
47	-11639
▁샤워	-11640
▁were	-11641
▁특혜	-11642
▁반성	-11643
스럽다	-11644
▁툪	-11645
▁수의	-11646
▁준비하는	-11647
▁당원	-11648
▁모험	-11649
▁이산	-11650
층에서	-11651
▁보호를	-11652
▁상처가	-11653
▁껍	-11654
▁합의했다	-11655
전용	-11656
▁우호	-11657
▁그리하여	-11658
▁휘둘	-11659
▁공조	-11660
▁얼마든지	-11661
▁골든	-11662
▁노력하겠다고	-11663
▁신장	-11664
▁주문이	-11665
건설이	-11666
▁한시	-11667
▁일일이	-11668
▁피해자가	-11669
▁욕설	-11670
▁사막	-11671
▁고스란히	-11672
▁하나씩	-11673
▁셋째	-11674
▁KTX	-11675
온을	-11676
들만	-11677
▁농산물	-11678
▁기숙	-11679
▁입장에서는	-11680
▁뭔가를	-11681
공무원	-11682
▁물려	-11683
▁엘리베이터	-11684
▁다시한번	-11685
속의	-11686
▁장관과	-11687
조각	-11688
윞돘	-11689
토론	-11690
▁사용자의	-11691
▁씁쓸	-11692
AE	-11693
▁죽음의	-11694
▁고문	-11695
▁발송해	-11696
▁경쟁을	-11697
▁박사는	-11698
▁세트	-11699
▁합의가	-11700
800	-11701
▁강원랜드	-11702
▁밝히고	-11703
▁법원은	-11704
▁수준이	-11705
▁폭이	-11706
▁규정하고	-11707
▁반갑	-11708
▁MSI	-11709
▁생각보다	-11710
▁몰고	-11711
▁지방분	-11712
▁아세안	-11713
▁경제협력	-11714
하네	-11715
나가는	-11716
▁대화가	-11717
하늘	-11718
두로	-11719
▁대접	-11720
▁입사	-11721
▁관행	-11722
ers	-11723
▁병원으로	-11724
▁늘어났다	-11725
▁음악을	-11726
▁뺨을	-11727
▁진실을	-11728
▁디자이너	-11729
▁안내를	-11730
이었으나	-11731
하신다면	-11732
기계	-11733
▁원장	-11734
▁부끄러	-11735
▁매체	-11736
▁신도	-11737
타의	-11738
▁때로는	-11739
▁국민들이	-11740
▁bb	-11741
▁지속될	-11742
디자인	-11743
시쯤	-11744
▁이마에	-11745
매가	-11746
▁싶을	-11747
반의	-11748
▁존재가	-11749
쳐서	-11750
▁많을	-11751
▁이길	-11752
▁제시된	-11753
▁사항을	-11754
▁진단했다	-11755
▁서면	-11756
▁밑으로	-11757
▁때였다	-11758
▁현대중공업	-11759
▁기념촬영	-11760
▁세우	-11761
▁작가의	-11762
아지	-11763
▁불행	-11764
르면서	-11765
▁소비자들이	-11766
었으며	-11767
▁nb	-11768
▁짜증	-11769
▁관리하는	-11770
▁집이	-11771
▁애플리케이션	-11772
▁크라	-11773
▁롤	-11774
▁써서	-11775
미에	-11776
▁해결하기	-11777
65	-11778
uc	-11779
융합	-11780
▁크리스마스	-11781
개정	-11782
▁양의	-11783
▁눈빛으로	-11784
광이	-11785
자본	-11786
▁유가족	-11787
으로서의	-11788
▁얼어붙	-11789
였어	-11790
역의	-11791
집이	-11792
것이다	-11793
인지는	-11794
▁사업이다	-11795
▁결국은	-11796
▁소득주도	-11797
▁손수	-11798
▁근본적인	-11799
있다는	-11800
▁근절	-11801
▁아버지를	-11802
▁탄력	-11803
▁지원에	-11804
▁영동	-11805
▁안정을	-11806
올라	-11807
▁돼지	-11808
▁박원순	-11809
▁콰	-11810
▁당기	-11811
▁하늘이	-11812
▁축적	-11813
▁오르고	-11814
거니	-11815
▁그런가	-11816
▁야생	-11817
▁부장판	-11818
▁놀랐	-11819
갑을	-11820
▁nbsp	-11821
▁고작	-11822
겁니다	-11823
화했다	-11824
ate	-11825
레일	-11826
▁재단	-11827
49	-11828
ob	-11829
입고	-11830
센터가	-11831
▁기울여	-11832
▁장성	-11833
▁정부를	-11834
▁조현	-11835
▁금감원은	-11836
▁구성된다	-11837
▁국회가	-11838
▁차이를	-11839
▁우연히	-11840
▁83	-11841
▁보석	-11842
▁휙	-11843
▁하반	-11844
▁커피를	-11845
▁페이지	-11846
농협	-11847
▁부담금	-11848
▁다할	-11849
난다	-11850
류에	-11851
essage	-11852
▁평일	-11853
▁남편이	-11854
▁사용을	-11855
▁소장	-11856
▁지극	-11857
▁가능해	-11858
▁베어	-11859
▁조속히	-11860
▁했는지	-11861
▁소녀는	-11862
▁고객들의	-11863
▁찡그	-11864
▁나누어	-11865
▁합작	-11866
▁안정적으로	-11867
▁시술	-11868
▁좋았다	-11869
▁쥔	-11870
▁키스를	-11871
▁아니요	-11872
배에	-11873
▁앞당	-11874
▁보험료	-11875
▁적용된	-11876
▁Th	-11877
타를	-11878
▁모터	-11879
▁플로	-11880
자금을	-11881
▁번에	-11882
▁욱	-11883
um	-11884
▁머물러	-11885
▁소위	-11886
res	-11887
▁동구	-11888
마저도	-11889
▁왕의	-11890
카의	-11891
협회는	-11892
▁승인을	-11893
▁유통망	-11894
▁잔을	-11895
▁고백	-11896
▁조사가	-11897
▁리는	-11898
▁궁극	-11899
▁경제의	-11900
▁160	-11901
▁메모리	-11902
▁하나다	-11903
▁막는	-11904
▁만나게	-11905
대학원	-11906
▁개가	-11907
▁남지	-11908
메이션	-11909
▁않겠다고	-11910
▁비공감	-11911
▁울렸다	-11912
▁오크	-11913
▁아메	-11914
▁진은	-11915
▁정부에서	-11916
▁수신	-11917
▁용이	-11918
▁들리지	-11919
▁암흑	-11920
▁안에는	-11921
이었다고	-11922
감도	-11923
밸리	-11924
▁권유	-11925
▁들어간다	-11926
▁꼽히는	-11927
▁학교를	-11928
▁차갑게	-11929
▁리고	-11930
▁채팅상담	-11931
IP	-11932
▁they	-11933
후는	-11934
사진	-11935
▁화장실	-11936
▁살아가는	-11937
기소	-11938
▁왔던	-11939
한의	-11940
▁입국	-11941
디스플레이	-11942
으려는	-11943
▁캡	-11944
▁먹거리	-11945
▁교통사고	-11946
락이	-11947
하기만	-11948
▁경우에도	-11949
사업이	-11950
▁모으고	-11951
▁나누는	-11952
▁즐겨	-11953
▁되어야	-11954
주간	-11955
▁것이니	-11956
농업	-11957
기관에	-11958
▁경고했다	-11959
▁주십시오	-11960
▁크다고	-11961
▁목표가가	-11962
▁현대자동차	-11963
▁김성태	-11964
정말	-11965
▁MB	-11966
▁증여	-11967
▁쌍용	-11968
▁땀을	-11969
▁경제가	-11970
▁프라	-11971
▁수고	-11972
▁사찰	-11973
▁그로	-11974
▁책임이	-11975
▁총장은	-11976
하오	-11977
▁적혀	-11978
▁전쟁이	-11979
▁궁금한	-11980
▁취해	-11981
대책을	-11982
▁영향력을	-11983
▁김치	-11984
▁외식	-11985
▁항목	-11986
▁돌아갔다	-11987
▁탄탄	-11988
▁바퀴	-11989
▁기본적인	-11990
식에는	-11991
투자증권에서	-11992
▁1980	-11993
▁거슬	-11994
BM	-11995
▁미스	-11996
▁스웨덴	-11997
▁국경	-11998
▁단말기는	-11999
▁신분증	-12000
▁기둥	-12001
▁기아차	-12002
신에	-12003
▁깔끔	-12004
랑은	-12005
럴림픽	-12006
▁직권	-12007
▁자진	-12008
▁형님	-12009
하셔서	-12010
폴리오	-12011
과제	-12012
▁쯤	-12013
▁게임을	-12014
▁레벨	-12015
▁현관	-12016
소리로	-12017
▁없었다고	-12018
est	-12019
▁선택을	-12020
▁회사에	-12021
▁기금	-12022
▁육박	-12023
▁처음에	-12024
▁정책의	-12025
▁케이스	-12026
▁요구에	-12027
▁문제도	-12028
줄을	-12029
▁높아졌다	-12030
▁해임	-12031
▁연예	-12032
▁영남	-12033
▁추출	-12034
▁제공된다	-12035
▁호응을	-12036
▁교수의	-12037
▁전제	-12038
▁생겼다	-12039
▁좋아요	-12040
되었고	-12041
▁재활용	-12042
▁협조를	-12043
▁선호하는	-12044
▁실용	-12045
▁쟢	-12046
▁우리은행	-12047
▁듣기	-12048
▁토로	-12049
▁미소지	-12050
▁없으니까	-12051
▁쉐	-12052
▁손쉽게	-12053
▁인건비	-12054
▁ex	-12055
▁트레이	-12056
▁bf	-12057
▁침체	-12058
▁디자인을	-12059
▁몸에서	-12060
▁편의를	-12061
▁양극	-12062
▁견제	-12063
▁소진	-12064
▁가파	-12065
▁섞인	-12066
▁인용해	-12067
이용	-12068
▁벌여	-12069
문화를	-12070
▁구매정보	-12071
▁뒤덮	-12072
수급	-12073
▁프린	-12074
▁튕	-12075
▁미끄러	-12076
▁움직였다	-12077
▁광명	-12078
행위를	-12079
▁불편한	-12080
▁이르기까지	-12081
▁정도를	-12082
▁제외하고	-12083
▁청렴	-12084
▁크리	-12085
▁편지	-12086
▁확인하는	-12087
▁돌아다니	-12088
▁반환	-12089
▁보강	-12090
▁관련이	-12091
들이었다	-12092
청사에서	-12093
▁전국에서	-12094
▁머뭇	-12095
▁선택한	-12096
▁대가로	-12097
보로	-12098
류는	-12099
인인	-12100
▁광주시	-12101
카를	-12102
▁연일	-12103
리아의	-12104
▁CNN	-12105
▁플라스틱	-12106
▁불렀	-12107
▁투명하게	-12108
▁침을	-12109
▁결정에	-12110
▁안색이	-12111
▁트리	-12112
▁이해를	-12113
감의	-12114
▁조직을	-12115
▁지친	-12116
청과	-12117
▁하얗게	-12118
omme	-12119
▁전국의	-12120
공은	-12121
▁신년	-12122
▁둬	-12123
혹한	-12124
▁여부는	-12125
퍼시픽	-12126
▁중얼거	-12127
▁교도	-12128
관리를	-12129
▁엽	-12130
▁이빨	-12131
▁연료	-12132
▁게이	-12133
▁들려오는	-12134
사업으로	-12135
▁회장을	-12136
계와	-12137
▁나서야	-12138
▁내용에	-12139
▁아줌	-12140
▁가축	-12141
▁대치	-12142
▁사내의	-12143
판에서	-12144
호텔에서	-12145
▁통증이	-12146
▁유럽연합	-12147
▁안보리	-12148
▁감안해	-12149
▁순간적으로	-12150
▁다주택	-12151
훈은	-12152
움은	-12153
▁농림축산	-12154
▁깨어나	-12155
▁중재	-12156
▁중소형	-12157
▁대학교	-12158
▁맞물	-12159
조치를	-12160
▁아시아나	-12161
번호를	-12162
▁찾아온	-12163
거냐	-12164
▁걸렸다	-12165
환자	-12166
카페	-12167
box	-12168
▁해방	-12169
계열	-12170
데이트	-12171
▁회장과	-12172
▁써야	-12173
▁아티	-12174
▁포르	-12175
▁호소했다	-12176
▁대응을	-12177
▁벗겨	-12178
▁나라가	-12179
▁길에	-12180
▁여가	-12181
▁상향조정	-12182
▁공간으로	-12183
▁도무지	-12184
▁꼬집었다	-12185
▁이번에도	-12186
일인	-12187
▁김동연	-12188
▁정신적	-12189
▁뭐냐	-12190
▁일할	-12191
으로서는	-12192
▁손에서	-12193
▁신발	-12194
▁말아야	-12195
▁있자	-12196
▁타는	-12197
재단은	-12198
호와	-12199
라기	-12200
▁랜드	-12201
▁미안해	-12202
▁주파	-12203
▁점수를	-12204
▁밤이	-12205
▁허벅	-12206
기관과	-12207
▁퓨	-12208
▁자네는	-12209
▁임대주택	-12210
▁설립된	-12211
총을	-12212
▁규명	-12213
▁스마트시티	-12214
▁정해진	-12215
ms	-12216
▁상응하는	-12217
▁후에도	-12218
비공감	-12219
▁본인의	-12220
더욱	-12221
▁아모레	-12222
eru	-12223
▁확보할	-12224
▁강조한	-12225
▁끝나는	-12226
▁공유하고	-12227
▁140	-12228
▁대상에	-12229
백화	-12230
건데	-12231
▁교회	-12232
년동안	-12233
▁쪽에	-12234
▁에서는	-12235
▁끔찍한	-12236
모델링	-12237
겠나	-12238
▁하기로	-12239
▁의견은	-12240
▁달랐다	-12241
▁적용된다	-12242
▁동성	-12243
▁없잖아	-12244
▁인간을	-12245
▁사람들과	-12246
▁벗어나지	-12247
음과	-12248
▁삼성바이오로직	-12249
▁구조조정	-12250
▁공지	-12251
▁KA	-12252
▁세미나	-12253
▁법제	-12254
▁MA	-12255
사리	-12256
▁돌아올	-12257
연수	-12258
▁가입자	-12259
▁감사의	-12260
격으로	-12261
▁동일하게	-12262
▁총장	-12263
역은	-12264
▁어려우	-12265
했다면	-12266
▁예비후	-12267
세한	-12268
▁대결	-12269
셀러	-12270
ge	-12271
▁송영	-12272
▁줄곧	-12273
▁인상이	-12274
와도	-12275
▁양보	-12276
▁미뤄	-12277
▁쑤	-12278
▁향상을	-12279
비공감은	-12280
답글은	-12281
댓글답글은	-12282
공감비공감은	-12283
helpile	-12284
▁duplicaecaui	-12285
▁출자	-12286
▁방에서	-12287
▁더러운	-12288
▁서양	-12289
▁키가	-12290
▁지나면	-12291
미안	-12292
▁허허	-12293
▁드러내	-12294
▁이쪽	-12295
종으로	-12296
▁생산하는	-12297
▁더욱이	-12298
▁받아들일	-12299
▁떠났다	-12300
훈련을	-12301
▁눈동자	-12302
대교	-12303
▁뜻으로	-12304
봐도	-12305
▁신생아	-12306
▁수송	-12307
▁흐음	-12308
▁귀엽	-12309
▁다각	-12310
▁하고는	-12311
▁비하	-12312
▁성범죄	-12313
▁농식품	-12314
▁다이어	-12315
▁무시하고	-12316
▁기본적으로	-12317
값이	-12318
▁밤을	-12319
치자	-12320
▁흐르고	-12321
▁눈부	-12322
▁얻는	-12323
빈은	-12324
호기	-12325
▁리콜	-12326
▁거라는	-12327
▁하였	-12328
▁하루에	-12329
개사	-12330
▁류지	-12331
▁있었지	-12332
▁아내가	-12333
▁뒤에는	-12334
▁차고	-12335
▁의미로	-12336
▁닻	-12337
▁kn	-12338
▁정세	-12339
었나	-12340
▁네놈	-12341
▁가능하도록	-12342
금속	-12343
센티브	-12344
▁꿈틀	-12345
▁알기	-12346
▁실력을	-12347
▁이산가족	-12348
주차	-12349
▁수익성	-12350
▁땇멲	-12351
재해	-12352
야가	-12353
▁이어갔다	-12354
▁그곳에서	-12355
▁기간은	-12356
▁어떻게든	-12357
▁박성	-12358
▁있겠지만	-12359
태평양	-12360
▁중지	-12361
▁흘렀다	-12362
더러	-12363
▁국민을	-12364
▁확실하게	-12365
벤션	-12366
헬스	-12367
▁기록하고	-12368
▁잠실	-12369
▁무심	-12370
정치	-12371
▁보고서는	-12372
▁유료	-12373
▁앞선	-12374
▁맡았다	-12375
▁성장세를	-12376
▁원활한	-12377
▁눈에는	-12378
상담사	-12379
▁선택이	-12380
▁중간에	-12381
▁혁명	-12382
지역으로	-12383
▁원하시는	-12384
▁돌아오는	-12385
타가	-12386
월의	-12387
▁원주	-12388
▁그런지	-12389
▁하니까	-12390
처벌	-12391
▁인지도	-12392
▁비판을	-12393
▁스위스	-12394
▁거라	-12395
▁않습니까	-12396
▁연락이	-12397
ast	-12398
아래	-12399
▁노인이	-12400
혈압	-12401
▁불이익	-12402
▁서기	-12403
▁학원	-12404
▁신차	-12405
▁작가는	-12406
▁확보하고	-12407
▁펼쳐진다	-12408
근무	-12409
▁이어갈	-12410
▁너에게	-12411
ind	-12412
▁사정을	-12413
▁시험을	-12414
▁어긋	-12415
공의	-12416
니지	-12417
▁수준인	-12418
▁언제든지	-12419
▁구형	-12420
▁무척이나	-12421
생태	-12422
센터에	-12423
▁단숨	-12424
▁형식	-12425
리우	-12426
▁형의	-12427
▁엄격	-12428
ust	-12429
▁직장인	-12430
▁떨어지고	-12431
시께	-12432
권도	-12433
▁조사하고	-12434
▁성능을	-12435
▁정상이	-12436
▁다카	-12437
▁연재	-12438
▁굳어	-12439
▁개선이	-12440
▁그랬다	-12441
▁요양	-12442
▁좀처럼	-12443
▁참가한	-12444
▁공장을	-12445
▁쾌적한	-12446
채로	-12447
▁개최한다고	-12448
▁동북아	-12449
하므로	-12450
▁비리	-12451
▁연말까지	-12452
▁때려	-12453
▁올라갔다	-12454
테고	-12455
▁연세대	-12456
▁어떨	-12457
▁봶	-12458
만대	-12459
데스	-12460
▁저하	-12461
▁찾아볼	-12462
▁또다른	-12463
▁배신	-12464
▁인가	-12465
재료	-12466
▁자신들이	-12467
▁무엇보다도	-12468
▁사정이	-12469
동에서	-12470
▁목표주가의	-12471
추는	-12472
언스	-12473
날이	-12474
정통	-12475
▁규제가	-12476
pe	-12477
됐을	-12478
▁계층	-12479
▁거점	-12480
르자	-12481
분으로	-12482
▁사회를	-12483
그는	-12484
▁바닥을	-12485
▁켄	-12486
▁자료에	-12487
▁메리	-12488
▁임대료	-12489
46	-12490
▁부인이	-12491
▁쁺	-12492
▁대답이	-12493
▁넣은	-12494
▁설사	-12495
▁de	-12496
ome	-12497
▁마시는	-12498
▁one	-12499
▁여인의	-12500
홀딩	-12501
▁공개된	-12502
▁국토교통부	-12503
▁긴밀한	-12504
▁무기를	-12505
질렀다	-12506
▁이노	-12507
스럽고	-12508
▁떨어지	-12509
▁쓰러진	-12510
▁그제야	-12511
▁당해	-12512
▁다채로운	-12513
▁긍정적으로	-12514
▁빨아	-12515
▁치명	-12516
모의	-12517
▁처분을	-12518
철이	-12519
블록	-12520
▁제안을	-12521
▁클래식	-12522
▁나눈	-12523
▁있겠지	-12524
▁그대의	-12525
▁중소기업의	-12526
▁완벽하게	-12527
▁내기	-12528
▁끄덕이며	-12529
NA	-12530
시에서	-12531
▁봅니다	-12532
▁노력하겠다	-12533
이라면서	-12534
▁71	-12535
단계로	-12536
▁소홀	-12537
후가	-12538
▁진지한	-12539
있지	-12540
ke	-12541
▁했었다	-12542
▁하라	-12543
연합회	-12544
▁발표를	-12545
퇴근	-12546
▁화살	-12547
▁덴	-12548
천원	-12549
▁비비	-12550
페라	-12551
▁의미다	-12552
▁비교하면	-12553
▁각오	-12554
▁7000	-12555
▁완납	-12556
로와	-12557
▁기운을	-12558
▁가산	-12559
전력	-12560
▁결정이	-12561
▁말이냐	-12562
▁굿	-12563
▁외에는	-12564
소재	-12565
▁개발하고	-12566
▁이순	-12567
▁중요성을	-12568
▁입으로	-12569
▁타임	-12570
▁모듈	-12571
▁제목	-12572
▁미얀	-12573
▁기사의	-12574
▁작업이	-12575
▁않나	-12576
▁생각했던	-12577
르를	-12578
병은	-12579
▁출생	-12580
▁국왕	-12581
▁알아보	-12582
▁김대중	-12583
저나	-12584
▁발견했다	-12585
▁행사에는	-12586
▁쥒	-12587
▁가족과	-12588
▁밭	-12589
왔지만	-12590
▁갈색	-12591
▁발표하고	-12592
▁상승을	-12593
▁ch	-12594
▁숙였다	-12595
▁뚜렷한	-12596
▁벽을	-12597
▁특활	-12598
▁섬유	-12599
부지	-12600
기간을	-12601
▁전격	-12602
▁사건과	-12603
▁참여한다	-12604
▁글이	-12605
▁어젯	-12606
▁까다	-12607
▁무사히	-12608
행사를	-12609
▁않자	-12610
▁극히	-12611
▁돼야	-12612
▁이후에는	-12613
▁일괄	-12614
거에요	-12615
▁눈빛을	-12616
▁무언가를	-12617
▁달라는	-12618
▁개정안	-12619
시마	-12620
민을	-12621
▁82	-12622
▁창출을	-12623
▁지침	-12624
▁가이	-12625
▁관내	-12626
▁약정이	-12627
▁초청해	-12628
▁체결했다고	-12629
선생	-12630
▁시작했고	-12631
▁숙이고	-12632
▁장사	-12633
▁연구팀은	-12634
▁속초	-12635
▁있어서는	-12636
▁급속	-12637
▁인상에	-12638
만원이다	-12639
our	-12640
▁단숨에	-12641
홀에서	-12642
▁프로그램은	-12643
난히	-12644
▁알아야	-12645
포먼	-12646
▁발견한	-12647
▁준비했다	-12648
▁운영해	-12649
▁악마	-12650
▁명확히	-12651
▁승리를	-12652
▁응모	-12653
성장을	-12654
▁주장하고	-12655
▁대응할	-12656
▁국제사회의	-12657
▁목소리도	-12658
▁곳도	-12659
리나	-12660
▁출마를	-12661
▁드리고	-12662
▁걷는	-12663
인사	-12664
▁만나볼	-12665
▁화해	-12666
▁여전	-12667
▁뺏	-12668
▁행동이	-12669
층지상	-12670
▁이뤄지는	-12671
패드	-12672
▁우는	-12673
▁연결하는	-12674
▁날씨가	-12675
▁위해서다	-12676
련을	-12677
▁기대할	-12678
▁샀	-12679
▁전진	-12680
기업이	-12681
인데도	-12682
▁나뉘	-12683
릿한	-12684
▁척추	-12685
▁관계없이	-12686
보에	-12687
▁분석된다	-12688
림에	-12689
▁천하	-12690
▁이루어진	-12691
금지	-12692
연하게	-12693
▁일고	-12694
▁텅	-12695
▁어리둥	-12696
▁쪽에서	-12697
▁개최를	-12698
▁제길	-12699
▁직원들의	-12700
▁현대차는	-12701
▁민감	-12702
하진	-12703
월과	-12704
▁포위	-12705
▁대리점에서	-12706
좋은	-12707
▁되기를	-12708
▁소년이	-12709
▁구성돼	-12710
▁오류	-12711
▁큛	-12712
▁인형	-12713
▁라면	-12714
▁비어	-12715
종일	-12716
▁푸드	-12717
▁세계적	-12718
▁괴물	-12719
▁차에	-12720
있나요	-12721
▁됐다며	-12722
▁줄이기	-12723
▁되살	-12724
▁생각했	-12725
▁두드러	-12726
▁아랍	-12727
▁못하도록	-12728
▁섹션으로	-12729
세이	-12730
▁렌탈	-12731
거리면서	-12732
남도	-12733
▁명은	-12734
▁확대될	-12735
▁쳇	-12736
▁만기	-12737
▁확보해	-12738
카드는	-12739
▁초록	-12740
▁비디오	-12741
현을	-12742
▁우스	-12743
▁이해하고	-12744
▁불쑥	-12745
사업자	-12746
클래	-12747
▁모두의	-12748
날을	-12749
▁중독	-12750
▁주민들은	-12751
▁굳은	-12752
▁결혼을	-12753
▁샤오	-12754
▁겨냥한	-12755
▁간담회	-12756
▁들여다보	-12757
▁이들에게	-12758
▁휴식을	-12759
▁돌이	-12760
위원회와	-12761
년만에	-12762
▁스타벅스	-12763
청에서	-12764
▁물러서	-12765
학회	-12766
하자고	-12767
▁앵	-12768
폰을	-12769
▁할아버지	-12770
▁이뤄지고	-12771
▁흐느	-12772
카드를	-12773
▁방문하는	-12774
▁유포	-12775
운전	-12776
▁경향이	-12777
▁기기를	-12778
▁취지로	-12779
▁계승	-12780
▁태극	-12781
▁업그레이드	-12782
▁페이스북에	-12783
▁시민이	-12784
▁이사장	-12785
▁기술력을	-12786
▁떠오르는	-12787
▁which	-12788
▁복구	-12789
▁항만	-12790
▁적자	-12791
▁공급하는	-12792
탄이	-12793
DC	-12794
▁껴안	-12795
▁엄청나게	-12796
▁있었으며	-12797
▁늘리는	-12798
▁통하여	-12799
▁이씨는	-12800
애를	-12801
베스트	-12802
▁번갈	-12803
▁싣	-12804
▁모델은	-12805
▁체류	-12806
▁전환을	-12807
▁공기가	-12808
▁권한대행	-12809
부족	-12810
▁인센티브	-12811
▁업데이트	-12812
▁신청한	-12813
으라고	-12814
EB	-12815
▁대의	-12816
▁남동	-12817
▁그나	-12818
▁현역	-12819
▁전력을	-12820
▁할부로	-12821
▁혐오	-12822
ame	-12823
협약	-12824
드려요	-12825
▁살충제	-12826
▁사람으로	-12827
▁이따	-12828
▁출신의	-12829
▁과기정통	-12830
▁단단히	-12831
고와	-12832
▁젓	-12833
▁않았기	-12834
▁정정	-12835
▁몇번	-12836
▁합의한	-12837
▁있느냐	-12838
▁부자	-12839
▁따위는	-12840
700	-12841
old	-12842
▁들면	-12843
▁헬스케어	-12844
▁진화	-12845
▁기록하며	-12846
▁동그	-12847
▁힐링	-12848
루미늄	-12849
보조	-12850
녀를	-12851
▁처벌을	-12852
▁암살	-12853
85	-12854
▁진행한다고	-12855
▁민정	-12856
▁출시를	-12857
어지	-12858
라면서	-12859
어버렸다	-12860
▁윽	-12861
▁뽀	-12862
▁손해배상	-12863
▁양식	-12864
▁감수	-12865
▁무서워	-12866
▁맴	-12867
수당	-12868
▁강렬한	-12869
천을	-12870
▁도입해	-12871
▁술에	-12872
▁법이	-12873
▁잭	-12874
▁감사를	-12875
▁특성상	-12876
현대	-12877
▁대책이	-12878
▁울음	-12879
▁비닐	-12880
▁종족	-12881
▁사형	-12882
황을	-12883
▁검거	-12884
▁살이	-12885
▁압박을	-12886
▁원으로	-12887
탖봞	-12888
▁익일	-12889
▁자랑하는	-12890
▁서울과	-12891
▁취할	-12892
OU	-12893
▁번의	-12894
▁ab	-12895
▁컨트롤	-12896
단체장	-12897
▁반려동물	-12898
▁최순실	-12899
▁밖에도	-12900
▁덎	-12901
▁건국	-12902
▁이동해	-12903
▁근대	-12904
▁핑크	-12905
▁일회	-12906
▁세련	-12907
▁Z	-12908
▁마찬가지다	-12909
▁내려다보	-12910
▁톏	-12911
입을	-12912
▁달이	-12913
되던	-12914
설이	-12915
시죠	-12916
▁위원장을	-12917
▁보여준다	-12918
해라	-12919
▁인프라를	-12920
▁부당한	-12921
▁적용되는	-12922
▁손잡	-12923
부총	-12924
드리지	-12925
▁편리한	-12926
▁언론에	-12927
▁서류를	-12928
시킨다	-12929
▁발생해	-12930
▁수상했다	-12931
▁인정하고	-12932
▁It	-12933
▁세력	-12934
▁스페이스	-12935
▁가격으로	-12936
▁안동	-12937
▁걷기	-12938
▁분은	-12939
▁일일	-12940
▁쿠키	-12941
▁내방	-12942
▁부산의	-12943
실수	-12944
어와	-12945
▁막상	-12946
▁기술은	-12947
▁스트레스	-12948
▁워크숍	-12949
▁토끼	-12950
▁한국지	-12951
▁서있는	-12952
▁모금	-12953
오스	-12954
▁모델이	-12955
▁용기를	-12956
▁IM	-12957
▁참사	-12958
▁메이크	-12959
결과를	-12960
▁다하겠다고	-12961
림으로	-12962
과학기술	-12963
결정	-12964
철은	-12965
▁일과	-12966
▁편이다	-12967
▁뭔지	-12968
열이	-12969
▁베를	-12970
▁박영	-12971
▁재산을	-12972
▁소비자의	-12973
머리를	-12974
▁더더욱	-12975
▁4.	-12976
▁고민을	-12977
오기	-12978
▁수요를	-12979
▁지방의	-12980
▁순이었다	-12981
▁이념	-12982
▁유로	-12983
노는	-12984
▁스며	-12985
▁환경부	-12986
▁종합적으로	-12987
황이	-12988
▁일정한	-12989
▁즐겁게	-12990
▁빤	-12991
분부터	-12992
▁키우는	-12993
▁블루투스	-12994
▁때와	-12995
▁활용하는	-12996
▁소리도	-12997
▁시인	-12998
▁쉬고	-12999
▁한의	-13000
에서다	-13001
▁붙은	-13002
▁유치원	-13003
▁맞을	-13004
▁수확	-13005
▁신청하면	-13006
▁기사가	-13007
▁꼼꼼히	-13008
▁곤두	-13009
▁잡지	-13010
반이	-13011
실적	-13012
▁택배로	-13013
능력을	-13014
▁리모델링	-13015
▁만료	-13016
▁공부를	-13017
▁프라이	-13018
▁신청서를	-13019
▁수만	-13020
박물관	-13021
▁안양	-13022
▁과제를	-13023
▁고무	-13024
▁터뜨렸다	-13025
▁ba	-13026
▁준비한	-13027
▁옮기	-13028
▁대표적	-13029
철을	-13030
전문가	-13031
▁영화를	-13032
대우	-13033
▁법원행정	-13034
▁외국인은	-13035
▁지역이	-13036
인재	-13037
▁브랜드로	-13038
▁꾸려	-13039
▁her	-13040
▁패러다	-13041
▁금융투자	-13042
▁원가	-13043
▁날아가	-13044
▁마련을	-13045
▁불가합니다	-13046
▁장면을	-13047
▁게시판	-13048
▁이마	-13049
▁고장	-13050
▁내면	-13051
▁가늘게	-13052
규칙	-13053
▁빠졌다	-13054
▁제목의	-13055
▁보니까	-13056
▁바꾸고	-13057
향은	-13058
▁국가주	-13059
▁인사청문	-13060
▁후퇴	-13061
수준을	-13062
인들에게	-13063
▁아닌지	-13064
▁구축해	-13065
▁배상	-13066
레이는	-13067
혁의	-13068
▁바꾼	-13069
▁열흘	-13070
국제공항	-13071
▁것이기	-13072
▁지체	-13073
▁똥	-13074
대금	-13075
▁전화로	-13076
▁아일	-13077
▁재확인	-13078
▁소녀의	-13079
▁간단하게	-13080
▁병원에서	-13081
▁패배	-13082
te	-13083
▁매장에	-13084
▁않기로	-13085
▁영국의	-13086
▁토해	-13087
▁건물을	-13088
드렸습니다	-13089
▁수산	-13090
▁기절	-13091
▁굳게	-13092
▁최근의	-13093
▁움직이고	-13094
▁전반적인	-13095
▁경기가	-13096
주며	-13097
▁노려보았다	-13098
▁뿜어	-13099
▁임종	-13100
▁전과	-13101
▁회피	-13102
▁외곽	-13103
▁소통을	-13104
▁확보했다	-13105
▁개봉	-13106
하다니	-13107
▁결정한	-13108
든다	-13109
▁지난해부터	-13110
▁고객들에게	-13111
▁진동	-13112
소시엄	-13113
▁고려한	-13114
▁알루미늄	-13115
▁종전선언	-13116
천이	-13117
▁그대가	-13118
▁협력사	-13119
▁달리는	-13120
▁집회	-13121
▁경기를	-13122
▁우려도	-13123
▁한양	-13124
▁선택약	-13125
▁반문	-13126
if	-13127
토는	-13128
▁김지	-13129
▁공동주택	-13130
▁8000	-13131
▁사제	-13132
32	-13133
방문	-13134
▁겪은	-13135
가게	-13136
정신	-13137
▁인식이	-13138
▁호수	-13139
▁다가온	-13140
▁이뤄진다	-13141
▁체험할	-13142
▁본격화	-13143
교는	-13144
▁성과가	-13145
▁형편	-13146
격에	-13147
▁그지	-13148
▁신경쓰	-13149
▁허공을	-13150
▁요청을	-13151
▁발견됐다	-13152
▁환경에	-13153
뿐이다	-13154
▁만화	-13155
▁점검하고	-13156
환이	-13157
▁어젯밤	-13158
분할	-13159
▁나이에	-13160
▁비판이	-13161
▁뜯어	-13162
▁면에서	-13163
꺼야	-13164
▁나와서	-13165
▁관리에	-13166
▁기술로	-13167
▁전액	-13168
워드	-13169
▁여성을	-13170
▁out	-13171
▁허리에	-13172
▁생각으로	-13173
▁식의	-13174
토리	-13175
▁중증	-13176
▁시간과	-13177
▁일요일	-13178
임은	-13179
▁초조	-13180
▁신성	-13181
▁치며	-13182
▁기증	-13183
▁아모레퍼시픽	-13184
▁싸울	-13185
▁출전	-13186
비서관	-13187
▁녀석에게	-13188
산으로	-13189
▁광복	-13190
▁추진을	-13191
▁재현	-13192
▁한계	-13193
▁현상을	-13194
▁해고	-13195
▁따르	-13196
▁싸워	-13197
▁협상이	-13198
▁아스	-13199
▁전임	-13200
▁카드할인	-13201
▁단계적으로	-13202
▁햄	-13203
▁민감한	-13204
▁빌딩	-13205
일자리	-13206
ip	-13207
▁높아질	-13208
▁원이	-13209
▁시행령	-13210
▁민주노총	-13211
름한	-13212
캐피	-13213
▁장비를	-13214
▁끝을	-13215
▁명의로	-13216
▁동의를	-13217
업이	-13218
▁텍	-13219
▁아뇨	-13220
▁늘리고	-13221
▁희망하는	-13222
▁외출	-13223
▁고가	-13224
▁추정되는	-13225
▁끝나면	-13226
▁퍼포먼	-13227
▁도시의	-13228
▁동서	-13229
▁최선의	-13230
적이라고	-13231
▁보전	-13232
▁공동체	-13233
▁붙잡고	-13234
▁마이너	-13235
▁효과적으로	-13236
▁FAN	-13237
▁의아한	-13238
▁창백	-13239
▁자금이	-13240
▁년간	-13241
리포니아	-13242
▁묻어	-13243
왔다고	-13244
▁예산이	-13245
▁심상	-13246
▁시선으로	-13247
동강	-13248
▁정권의	-13249
▁하더니	-13250
▁강구	-13251
▁기대했다	-13252
소사	-13253
엘의	-13254
▁답을	-13255
▁왔습니다	-13256
북도	-13257
▁네덜	-13258
▁발부	-13259
▁없었습니다	-13260
▁최상	-13261
▁법률에	-13262
▁두들	-13263
▁가능하다고	-13264
▁저절로	-13265
방해	-13266
▁포트폴리오	-13267
▁170	-13268
▁말의	-13269
▁살아있는	-13270
▁후보자는	-13271
▁딸을	-13272
▁코를	-13273
▁사육	-13274
▁지정된	-13275
▁급한	-13276
▁장치	-13277
▁시간도	-13278
▁될지	-13279
▁주관하는	-13280
▁앞의	-13281
▁나오면	-13282
▁일부는	-13283
▁폭넓	-13284
ive	-13285
르몬	-13286
▁실례	-13287
▁산출	-13288
▁거주하는	-13289
목적	-13290
▁삼고	-13291
▁폭스	-13292
▁각기	-13293
내야	-13294
▁변했다	-13295
▁크레	-13296
▁제조업체	-13297
▁몽골	-13298
▁목덜	-13299
▁아쉽	-13300
▁아카데	-13301
▁무용	-13302
대변인은	-13303
▁이용하면	-13304
▁내년에	-13305
▁부사장은	-13306
▁1998	-13307
▁목적을	-13308
훈이	-13309
담보대출	-13310
▁해명했다	-13311
▁법원이	-13312
▁안나	-13313
▁웹툰	-13314
▁출신인	-13315
짐을	-13316
▁흘려	-13317
카와	-13318
▁질러	-13319
곳으로	-13320
▁바로픽업으로	-13321
▁연계한	-13322
▁똑같	-13323
▁지시했다	-13324
▁한마디로	-13325
▁참여하고	-13326
교섭	-13327
▁묀	-13328
▁통신사	-13329
츠는	-13330
뒹굴	-13331
드레	-13332
▁입구	-13333
▁문의주신	-13334
▁이루는	-13335
▁시나리오	-13336
▁마세요	-13337
▁않았는데	-13338
가야	-13339
정부가	-13340
▁부탁드리겠습니다	-13341
▁여유가	-13342
▁중반	-13343
티를	-13344
▁단정	-13345
▁있는데요	-13346
부동산	-13347
▁구별	-13348
재난	-13349
▁이상인	-13350
▁피아노	-13351
▁양쪽	-13352
▁시일	-13353
▁허나	-13354
▁먹으면	-13355
▁맛있는	-13356
▁조정을	-13357
년여	-13358
▁싱글	-13359
▁들어가서	-13360
등한	-13361
▁공동대표	-13362
▁배터	-13363
▁선별	-13364
려던	-13365
▁비극	-13366
▁티켓	-13367
▁않았다면	-13368
원장	-13369
▁끌어당	-13370
▁장려	-13371
끄러미	-13372
▁의원들이	-13373
▁정성	-13374
롭지	-13375
▁부문에서	-13376
▁진술을	-13377
▁형을	-13378
▁분위기다	-13379
▁처리를	-13380
▁소액	-13381
ood	-13382
▁소모	-13383
▁혐의도	-13384
▁분야를	-13385
▁추세다	-13386
▁요인으로	-13387
▁옵션	-13388
공자	-13389
▁다양하게	-13390
▁이하로	-13391
▁찍은	-13392
▁실시했다	-13393
NK	-13394
통신은	-13395
▁비서실	-13396
전지	-13397
▁코너	-13398
▁진행되며	-13399
▁지키기	-13400
▁대개	-13401
▁관계자들이	-13402
▁동화	-13403
▁무대에	-13404
0000	-13405
▁친구를	-13406
▁모두에게	-13407
▁눈빛이	-13408
▁버릇	-13409
▁이재용	-13410
▁국비	-13411
▁차례로	-13412
▁탔	-13413
▁근접	-13414
▁구로	-13415
▁인재를	-13416
▁일간	-13417
갔고	-13418
▁조건이	-13419
엘이	-13420
▁소지	-13421
▁학생들에게	-13422
▁전국에	-13423
▁국정농단	-13424
원도	-13425
하죠	-13426
▁있기를	-13427
▁상을	-13428
▁일방적으로	-13429
▁심화	-13430
▁차질	-13431
▁판사는	-13432
▁튼튼	-13433
▁벌어졌다	-13434
▁강행	-13435
▁짝이	-13436
기준을	-13437
▁황제의	-13438
렌즈	-13439
▁내륙	-13440
▁금리인	-13441
▁달걀	-13442
비율	-13443
재정	-13444
하셔야	-13445
▁올려다	-13446
책이	-13447
겠는데	-13448
▁법인세	-13449
▁마다	-13450
▁의무를	-13451
서치	-13452
▁했으며	-13453
TI	-13454
▁즈	-13455
아도	-13456
▁운영된다	-13457
원들의	-13458
▁부른	-13459
▁농림축산식품	-13460
▁한껏	-13461
▁프로그램이	-13462
▁탈퇴	-13463
▁절차가	-13464
▁됐어	-13465
▁사귀	-13466
▁남용	-13467
▁선정했다	-13468
▁채용비리	-13469
▁맺은	-13470
▁전통시장	-13471
▁시각이	-13472
▁떨었다	-13473
▁자식이	-13474
▁유독	-13475
▁상급	-13476
▁여보	-13477
▁360	-13478
마케팅	-13479
▁호위	-13480
▁기억하고	-13481
티는	-13482
▁기념촬영을	-13483
▁청와대에서	-13484
▁임무를	-13485
▁구매한	-13486
일으	-13487
사에게	-13488
▁급하게	-13489
▁실수요	-13490
▁철저하게	-13491
33	-13492
돌았다	-13493
▁플랜	-13494
▁제기된	-13495
▁출연해	-13496
▁비중은	-13497
▁정책과	-13498
▁로이	-13499
▁색상은	-13500
▁원인으로	-13501
▁임무	-13502
▁모두를	-13503
컨대	-13504
▁우리들의	-13505
▁달라붙	-13506
▁한눈에	-13507
던지	-13508
▁기다릴	-13509
▁저출산	-13510
통제	-13511
▁합성	-13512
▁할인이	-13513
원입니다	-13514
엔은	-13515
▁신청이	-13516
▁구조조	-13517
▁눈초	-13518
▁주셨습니다	-13519
게는	-13520
▁하라고	-13521
▁길고	-13522
▁스프	-13523
▁적대	-13524
▁개정을	-13525
▁캘리포니아	-13526
▁계정	-13527
만명을	-13528
▁야구	-13529
테일	-13530
▁스페셜	-13531
▁힘없이	-13532
▁대부분은	-13533
지원을	-13534
▁역할이	-13535
▁낀	-13536
▁사과를	-13537
▁땇밻	-13538
함으로	-13539
▁조지	-13540
▁서울시가	-13541
▁전체적인	-13542
▁경과	-13543
▁미중	-13544
겠군요	-13545
▁판교	-13546
▁선보이고	-13547
▁자유한국당은	-13548
▁부인은	-13549
▁장소를	-13550
아악	-13551
▁필사	-13552
▁원료	-13553
▁쵕늒	-13554
▁상품으로	-13555
▁검토할	-13556
▁상무는	-13557
▁판단이	-13558
▁사건으로	-13559
▁대안	-13560
▁부들	-13561
▁허가를	-13562
학이	-13563
▁제압	-13564
받는다	-13565
커녕	-13566
▁일으키는	-13567
▁간절	-13568
▁뵙	-13569
▁꾸준한	-13570
▁하나요	-13571
코리아는	-13572
▁자궁	-13573
테이너	-13574
▁정면으로	-13575
▁비켜	-13576
▁자유를	-13577
▁부축	-13578
▁이송	-13579
▁그것에	-13580
▁들으며	-13581
▁있었는지	-13582
▁병을	-13583
▁넘어섰다	-13584
▁이듬	-13585
▁절벽	-13586
▁항암	-13587
주시는	-13588
▁아무렇지도	-13589
▁물량이	-13590
▁경제를	-13591
▁괌	-13592
▁방통	-13593
▁임용	-13594
연했다	-13595
▁양이	-13596
학기	-13597
▁집착	-13598
까봐	-13599
▁교장	-13600
▁부의	-13601
▁지킬	-13602
▁펼쳤다	-13603
900	-13604
▁번호이동	-13605
▁당할	-13606
이신	-13607
센터와	-13608
ist	-13609
▁헤르	-13610
▁ᄀ	-13611
▁모양의	-13612
개편	-13613
▁대학의	-13614
산에서	-13615
▁한발	-13616
품질	-13617
▁병원을	-13618
▁지방선거를	-13619
▁지방선거에서	-13620
SY	-13621
▁명에	-13622
▁붉게	-13623
▁일이야	-13624
▁거짓말을	-13625
▁분노를	-13626
▁머금	-13627
▁환경이	-13628
ach	-13629
▁고유	-13630
키스탄	-13631
▁금융권	-13632
작업을	-13633
▁성동	-13634
▁부추	-13635
▁주차장	-13636
탄도미사일	-13637
▁네트워크를	-13638
변호	-13639
▁이병	-13640
▁과천	-13641
▁해를	-13642
▁가지는	-13643
▁할인을	-13644
▁지껄	-13645
▁북구	-13646
▁여관	-13647
▁불필요한	-13648
▁유성	-13649
▁끈다	-13650
국장	-13651
▁여인이	-13652
▁위성	-13653
▁전문기업	-13654
▁둘러싸고	-13655
▁확인해보니	-13656
▁무작	-13657
▁싸우는	-13658
레를	-13659
▁호텔에서	-13660
▁일어나지	-13661
드린다	-13662
이든	-13663
▁방식의	-13664
미로	-13665
▁가방을	-13666
▁저자는	-13667
▁회견	-13668
▁이라면서	-13669
기관인	-13670
▁솔루션을	-13671
▁해라	-13672
론의	-13673
닷컴	-13674
유플러스	-13675
곡을	-13676
▁350	-13677
▁비율을	-13678
▁만약에	-13679
드릴게요	-13680
▁인구가	-13681
▁오늘의	-13682
디스	-13683
표준	-13684
▁가상통화	-13685
위원장과	-13686
▁질린	-13687
▁예상하고	-13688
차와	-13689
▁상영	-13690
▁사랑해	-13691
ONE	-13692
▁인사가	-13693
▁마왕	-13694
때는	-13695
공인	-13696
▁전화가	-13697
▁수시	-13698
▁주석	-13699
▁종업	-13700
▁싸늘한	-13701
▁대강	-13702
▁질투	-13703
▁나쁨	-13704
▁개소	-13705
▁발이	-13706
첨단	-13707
▁내걸	-13708
▁내놓고	-13709
▁뛰었다	-13710
▁묻지	-13711
▁헝	-13712
▁세라	-13713
▁총을	-13714
▁고용노동부	-13715
▁맡겨	-13716
▁황당	-13717
▁회색	-13718
▁시그니	-13719
▁수업을	-13720
MC	-13721
없다	-13722
▁한계를	-13723
▁월간	-13724
물었다	-13725
▁요금제가	-13726
여부	-13727
▁여러가지	-13728
▁미워	-13729
▁멀쩡	-13730
▁나오자	-13731
가슴	-13732
▁때를	-13733
▁민주당이	-13734
▁외모	-13735
▁미카	-13736
▁갑작스런	-13737
▁미쳐	-13738
▁당국이	-13739
▁훔쳐	-13740
▁않았어	-13741
▁궐	-13742
▁이듬해	-13743
▁구두	-13744
▁옆구	-13745
▁업체는	-13746
영향	-13747
▁성장이	-13748
▁높다는	-13749
▁예상보다	-13750
속이	-13751
회사의	-13752
▁구축하고	-13753
▁창문	-13754
▁손잡고	-13755
나도	-13756
▁통영	-13757
▁환상	-13758
▁혐의가	-13759
▁물끄러미	-13760
요일에	-13761
▁심각하게	-13762
▁오찬	-13763
적이며	-13764
브로	-13765
▁공손	-13766
▁이제야	-13767
▁인생을	-13768
▁달려갔다	-13769
해주시	-13770
▁변화는	-13771
▁유인	-13772
▁고요	-13773
▁효과적인	-13774
▁먹지	-13775
▁신부	-13776
▁지역별	-13777
▁멀리서	-13778
동과	-13779
억원이다	-13780
▁호호	-13781
▁최저임	-13782
손에	-13783
▁김명	-13784
배로	-13785
거래일	-13786
▁들어섰다	-13787
먹은	-13788
▁결정하는	-13789
력도	-13790
십자	-13791
▁시키는	-13792
락한	-13793
▁이태	-13794
▁의정부	-13795
▁핥	-13796
▁것임을	-13797
▁솟구	-13798
▁전시회	-13799
▁묶어	-13800
▁전국적으로	-13801
out	-13802
졌기	-13803
층은	-13804
▁쉽고	-13805
▁이어진다	-13806
▁괜찮으	-13807
▁무리가	-13808
▁상고	-13809
▁방식이	-13810
▁어떡	-13811
▁떠오른	-13812
▁위원장과	-13813
▁죠	-13814
ure	-13815
▁영입	-13816
기본	-13817
▁마냥	-13818
이랑	-13819
▁투자하는	-13820
▁강력히	-13821
효율	-13822
▁점령	-13823
레드	-13824
▁근거가	-13825
▁카드할인포인트	-13826
영상	-13827
미애	-13828
▁바다를	-13829
▁제공하기	-13830
▁신기술	-13831
▁쓸데없는	-13832
▁조차	-13833
그렇게	-13834
224	-13835
▁시스템이	-13836
▁살펴보	-13837
▁던진	-13838
88	-13839
▁수상한	-13840
▁출간	-13841
▁초등학생	-13842
▁광경을	-13843
▁걸림	-13844
▁주간	-13845
상품을	-13846
▁나보다	-13847
▁so	-13848
▁모용	-13849
▁고함을	-13850
▁놀랄	-13851
▁적당한	-13852
▁영유	-13853
▁설립한	-13854
통일	-13855
▁이며	-13856
▁변태	-13857
▁보던	-13858
▁단위로	-13859
▁우위를	-13860
▁씨와	-13861
▁영역을	-13862
동으로	-13863
러워	-13864
▁남쪽	-13865
▁지금부터	-13866
▁확인되며	-13867
▁사회가	-13868
▁피부를	-13869
▁광범위	-13870
▁공정위는	-13871
▁나눴	-13872
▁성별	-13873
▁표명	-13874
▁유감	-13875
러가	-13876
부서	-13877
▁소집	-13878
▁대부	-13879
▁FANTA	-13880
▁잡힌	-13881
렉션	-13882
▁박수	-13883
규정	-13884
▁기준에	-13885
분과	-13886
▁월요일	-13887
▁손톱	-13888
▁신문은	-13889
회관에서	-13890
루션	-13891
▁넉넉	-13892
▁읽는	-13893
▁높아진	-13894
▁조사할	-13895
▁FANTASY	-13896
▁브랜드의	-13897
▁재밌	-13898
베르	-13899
▁향하는	-13900
▁어머니를	-13901
작가	-13902
▁논리	-13903
▁미르	-13904
▁톱	-13905
▁관리가	-13906
▁데도	-13907
▁엄마는	-13908
레가	-13909
▁내뿜	-13910
팀의	-13911
병의	-13912
▁말이었다	-13913
한지	-13914
▁섞여	-13915
▁제기된다	-13916
추천	-13917
▁아랑	-13918
▁작업에	-13919
▁아미	-13920
▁삼키	-13921
길은	-13922
▁인문	-13923
▁한가운데	-13924
▁콘서트	-13925
▁품절	-13926
염을	-13927
▁이고	-13928
▁도끼	-13929
▁대항	-13930
▁의견도	-13931
▁있습니까	-13932
▁배경으로	-13933
▁문서	-13934
▁달콤한	-13935
▁대화의	-13936
▁돕고	-13937
▁희미한	-13938
▁검술	-13939
▁땇쒊	-13940
▁두사람	-13941
▁표현을	-13942
▁항구	-13943
▁날렸다	-13944
▁자매	-13945
네스코	-13946
▁돌리	-13947
도어	-13948
▁혁신성장	-13949
▁툃	-13950
▁창을	-13951
▁하오	-13952
▁서비스로	-13953
▁체계적인	-13954
▁알바	-13955
▁불참	-13956
▁중이며	-13957
까지의	-13958
▁노인의	-13959
▁자이	-13960
▁참지	-13961
혈을	-13962
▁외교적	-13963
▁유상	-13964
▁기대가	-13965
▁잠들어	-13966
▁분담	-13967
▁훑어	-13968
러져	-13969
▁있거나	-13970
해하는	-13971
▁채널을	-13972
나눔	-13973
▁관광객이	-13974
▁ne	-13975
▁엑스	-13976
학자	-13977
▁국정감	-13978
▁동원해	-13979
옥은	-13980
▁딸이	-13981
▁증가로	-13982
스트라	-13983
▁각자의	-13984
▁들었던	-13985
▁울리는	-13986
▁참가해	-13987
▁무공을	-13988
▁역사의	-13989
very	-13990
▁도입한	-13991
▁그나저나	-13992
계에서	-13993
▁지나갔다	-13994
▁경유	-13995
린다는	-13996
▁미래의	-13997
▁스스로를	-13998
▁욕망	-13999
증은	-14000
▁픽	-14001
▁계획에	-14002
ong	-14003
▁오라	-14004
▁도움드리겠습니다	-14005
▁행안	-14006
이라고는	-14007
▁군데	-14008
인프라	-14009
▁연기를	-14010
▁위소보는	-14011
▁PB	-14012
▁관련해서	-14013
▁돌봄	-14014
▁강북	-14015
▁냉장고	-14016
▁의원들은	-14017
▁매물	-14018
▁기상청은	-14019
▁국민에게	-14020
▁온도	-14021
▁질을	-14022
▁제기되고	-14023
사항이	-14024
▁수치가	-14025
▁본사에서	-14026
▁않겠다	-14027
팀장은	-14028
▁장시간	-14029
▁인턴	-14030
▁구슬	-14031
▁같다는	-14032
▁청년이	-14033
▁주목받고	-14034
증권에서	-14035
▁돴	-14036
▁번만	-14037
▁방송통신	-14038
▁가족을	-14039
▁산불	-14040
보안	-14041
▁흡연	-14042
▁불러일으	-14043
▁신분으로	-14044
앞에	-14045
마법	-14046
▁출퇴근	-14047
기온은	-14048
스토어	-14049
▁기관의	-14050
▁여덟	-14051
▁싶었지만	-14052
가가치	-14053
▁힘은	-14054
▁기술의	-14055
▁나가서	-14056
▁대행	-14057
▁우체국	-14058
▁진지하게	-14059
쳤고	-14060
스러웠다	-14061
▁강화에	-14062
▁목적이	-14063
▁비참	-14064
▁아케	-14065
▁오브	-14066
▁정규	-14067
▁실질적으로	-14068
TO	-14069
▁정당한	-14070
▁93	-14071
취업	-14072
▁상품이	-14073
▁했어요	-14074
▁강세를	-14075
▁중이었다	-14076
▁붐	-14077
필드	-14078
▁휩쓸	-14079
▁뿐이야	-14080
▁이방	-14081
▁사업장	-14082
▁지루	-14083
현장	-14084
▁가능하다는	-14085
▁모욕	-14086
▁첫번째	-14087
봉은	-14088
▁유승	-14089
▁무의식	-14090
끄럽	-14091
외교	-14092
▁공적	-14093
쯤은	-14094
들지	-14095
77	-14096
▁이동통신사	-14097
▁우려했다	-14098
▁다루는	-14099
▁애로	-14100
▁싱긋	-14101
드리기	-14102
▁증거를	-14103
▁링크	-14104
시피	-14105
▁터져나	-14106
답을	-14107
▁al	-14108
본부장	-14109
▁고래	-14110
▁등록을	-14111
▁나가야	-14112
▁역설	-14113
▁더한	-14114
▁아끼지	-14115
기업에	-14116
▁2500	-14117
그렇	-14118
▁창고	-14119
▁부가세	-14120
▁신조	-14121
▁은폐	-14122
됐다며	-14123
▁제안한	-14124
▁협업을	-14125
▁덜어	-14126
낙연	-14127
▁대원	-14128
통에	-14129
놓을	-14130
▁학생들을	-14131
▁테슬	-14132
▁그때는	-14133
▁낙찰	-14134
▁불과한	-14135
▁들어왔	-14136
▁선거에서	-14137
▁92	-14138
▁넘기	-14139
▁지워	-14140
▁LS	-14141
▁활발한	-14142
▁어느정도	-14143
▁지극히	-14144
▁장관을	-14145
▁혁신적인	-14146
▁예정돼	-14147
▁아야	-14148
▁동요	-14149
▁은은	-14150
케미	-14151
희망	-14152
▁레니	-14153
▁전형적인	-14154
▁야기	-14155
설비	-14156
▁교실	-14157
▁정말이지	-14158
▁정교	-14159
▁다하겠다	-14160
주일	-14161
▁원에	-14162
▁개성공단	-14163
▁빠르	-14164
문제를	-14165
▁쏿	-14166
▁유네스코	-14167
만명이	-14168
▁분석도	-14169
▁일하고	-14170
▁죽지	-14171
▁콜라	-14172
▁만이다	-14173
▁동안의	-14174
95	-14175
▁코엑	-14176
▁서늘	-14177
▁면허	-14178
▁하기도	-14179
립을	-14180
▁인류	-14181
▁됐습니다	-14182
복이	-14183
▁벙	-14184
▁매달려	-14185
▁더욱더	-14186
▁심심	-14187
▁문체	-14188
생물	-14189
▁군수	-14190
▁신속히	-14191
▁화산	-14192
▁진전	-14193
▁마을을	-14194
▁이외에	-14195
보도	-14196
▁ad	-14197
맣게	-14198
▁담겼다	-14199
▁지급하는	-14200
부들	-14201
▁소녀가	-14202
▁따르고	-14203
씨도	-14204
▁수단	-14205
▁사용되는	-14206
산업단지	-14207
▁명목으로	-14208
▁돕기	-14209
▁어울리지	-14210
총회	-14211
▁피부에	-14212
▁현장의	-14213
격은	-14214
▁권력을	-14215
광을	-14216
보수	-14217
SA	-14218
▁뭐지	-14219
▁바꿨	-14220
▁높다고	-14221
권으로	-14222
▁기사는	-14223
▁성격을	-14224
을까요	-14225
슈타	-14226
▁산을	-14227
▁높인	-14228
▁우리나라는	-14229
▁전반적으로	-14230
▁대조	-14231
▁빼고	-14232
▁르노	-14233
▁발병	-14234
▁사양	-14235
남부	-14236
▁쭈	-14237
▁사마	-14238
▁스캔	-14239
분기에	-14240
았으나	-14241
▁요금이	-14242
▁체질	-14243
위인	-14244
▁이대	-14245
▁딥	-14246
디의	-14247
▁샐	-14248
▁취하고	-14249
▁뉘	-14250
▁man	-14251
▁이원	-14252
들기	-14253
척을	-14254
▁마실	-14255
▁전교	-14256
▁교차	-14257
▁후려	-14258
▁선거를	-14259
역사	-14260
▁입장에	-14261
▁81	-14262
▁공기를	-14263
▁제도가	-14264
▁상승한	-14265
▁마이크로	-14266
▁서두	-14267
▁기독교	-14268
▁흐트	-14269
▁체결한	-14270
▁어렵고	-14271
▁홈쇼핑	-14272
▁정신없이	-14273
천만원	-14274
▁삼성전자와	-14275
▁수화	-14276
크라	-14277
ous	-14278
▁돈은	-14279
▁상대는	-14280
ie	-14281
▁본다고	-14282
코스	-14283
▁때문으로	-14284
▁가족의	-14285
▁행동은	-14286
▁두꺼	-14287
▁이십	-14288
곳은	-14289
▁은혜	-14290
▁기쁜	-14291
스크포	-14292
▁고혈압	-14293
▁슬슬	-14294
▁욕을	-14295
▁신선한	-14296
▁해외에서	-14297
▁펼칠	-14298
▁쉼	-14299
▁괴로	-14300
▁형식으로	-14301
▁희미하게	-14302
▁팔에	-14303
▁지원하기	-14304
▁에르	-14305
없어	-14306
▁독려	-14307
▁휴가를	-14308
▁데이트	-14309
▁입술에	-14310
▁통화정책	-14311
▁크림	-14312
ect	-14313
▁여건	-14314
사법	-14315
▁우뚝	-14316
였기	-14317
▁통상임금	-14318
▁나서서	-14319
▁한방	-14320
▁합법	-14321
정도로	-14322
▁비단	-14323
▁교육감	-14324
소유	-14325
▁마찬가지였다	-14326
▁사부	-14327
▁환자를	-14328
DA	-14329
▁We	-14330
▁여부가	-14331
▁덕분	-14332
▁드워	-14333
▁소금	-14334
▁시너	-14335
▁원인은	-14336
▁시너지	-14337
▁절차에	-14338
▁교원	-14339
▁일러	-14340
▁원고	-14341
▁서는	-14342
▁커넥	-14343
▁친박	-14344
▁결과로	-14345
네의	-14346
▁안산	-14347
친화	-14348
▁읽을	-14349
RA	-14350
▁보수적인	-14351
▁의문을	-14352
카이	-14353
▁봤을	-14354
억원에서	-14355
▁속속	-14356
▁비스	-14357
▁UAE	-14358
▁잘못을	-14359
문과	-14360
▁불투	-14361
▁달고	-14362
▁지냈	-14363
▁당하고	-14364
▁여태	-14365
▁기업들은	-14366
▁대구시	-14367
▁그라	-14368
▁이낙연	-14369
▁아파트를	-14370
이었어	-14371
때도	-14372
아동	-14373
▁번갈아	-14374
▁밤새	-14375
▁오오	-14376
▁정중	-14377
바마	-14378
▁강좌	-14379
▁이천	-14380
▁are	-14381
환을	-14382
HONE	-14383
▁나가겠다고	-14384
▁벅	-14385
▁필요도	-14386
키의	-14387
▁증진	-14388
러스터	-14389
▁띈	-14390
▁눈동자를	-14391
원전	-14392
▁아무말	-14393
▁주면	-14394
▁경신	-14395
▁스크린	-14396
▁인스타	-14397
▁성분이	-14398
▁청취	-14399
▁없었기	-14400
▁이색	-14401
▁고사	-14402
티드	-14403
▁있겠다	-14404
▁러시아의	-14405
▁적용했다	-14406
▁적었다	-14407
위험	-14408
노인	-14409
▁내려앉	-14410
근한	-14411
▁닿는	-14412
▁오름	-14413
▁최우선	-14414
▁비교해보면	-14415
척이	-14416
▁황태	-14417
디언	-14418
▁위촉	-14419
▁작성하실	-14420
▁데에	-14421
반도	-14422
▁공정위	-14423
▁활약	-14424
▁이불	-14425
▁놓치지	-14426
▁일본이	-14427
▁특례	-14428
▁손님이	-14429
뾦래	-14430
▁겨울철	-14431
가루	-14432
▁대미	-14433
▁이유도	-14434
▁녹아	-14435
▁오기	-14436
빌딩	-14437
▁루시퍼	-14438
▁존재하지	-14439
▁표기	-14440
▁비하면	-14441
▁자꾸만	-14442
▁부평	-14443
▁흔적	-14444
▁도시를	-14445
▁동탄	-14446
▁방송을	-14447
▁틭	-14448
▁부탁드리며	-14449
금액이	-14450
▁같고	-14451
▁손실	-14452
▁간주	-14453
당국은	-14454
TX	-14455
▁시대가	-14456
▁독도	-14457
▁덤벼	-14458
▁만져	-14459
▁풍경	-14460
▁행복을	-14461
▁질려	-14462
▁쾅	-14463
▁우물	-14464
▁제출했다	-14465
▁웃는다	-14466
▁무단	-14467
▁초대형	-14468
84	-14469
무기	-14470
▁병사들이	-14471
▁생애	-14472
▁아닙니까	-14473
카드로	-14474
▁적당히	-14475
▁kr	-14476
▁일명	-14477
▁열을	-14478
▁뛰쳐	-14479
▁크롬	-14480
▁기대감을	-14481
▁개발과	-14482
▁보더니	-14483
▁땇톩	-14484
▁파트너십	-14485
▁컨소시엄	-14486
▁그림자	-14487
▁킹	-14488
▁깨끗이	-14489
▁두지	-14490
돈을	-14491
▁무거	-14492
▁끝내고	-14493
토의	-14494
▁보충	-14495
▁나머지는	-14496
▁사자	-14497
▁그래야	-14498
▁이룰	-14499
▁노골	-14500
▁말해서	-14501
았으며	-14502
이야말로	-14503
▁문화가	-14504
▁엄격한	-14505
▁묻는다	-14506
▁달빛	-14507
되었던	-14508
퍼런스	-14509
드렸	-14510
▁넘은	-14511
▁약속한	-14512
▁이제부터	-14513
▁일본에서	-14514
ound	-14515
대장	-14516
▁꽃을	-14517
▁파기	-14518
▁시작되는	-14519
▁성의	-14520
인지도	-14521
▁환자는	-14522
▁대지	-14523
초가	-14524
▁많다는	-14525
▁전하는	-14526
▁자유무역	-14527
잡을	-14528
공간을	-14529
군수	-14530
▁속해	-14531
▁프로모션을	-14532
▁근무하는	-14533
▁깔려	-14534
▁논평을	-14535
▁공직선거	-14536
가기	-14537
기업을	-14538
▁파격	-14539
여대	-14540
▁투자자들은	-14541
▁발생하고	-14542
▁급격한	-14543
친구	-14544
▁골자로	-14545
own	-14546
▁쌓인	-14547
▁이윤	-14548
값을	-14549
▁재계	-14550
▁쓸쓸	-14551
▁노원	-14552
적일	-14553
▁계급	-14554
▁나옵니다	-14555
▁산업통상자원부	-14556
추를	-14557
▁재학생	-14558
▁효율적인	-14559
▁돌고	-14560
▁당혹	-14561
▁팔이	-14562
음으로	-14563
▁수익률	-14564
▁수제	-14565
▁손실을	-14566
▁선거구	-14567
▁지나친	-14568
▁쓰여	-14569
어린이	-14570
▁사랑하고	-14571
▁동결	-14572
▁용납	-14573
개월이	-14574
▁사랑이	-14575
▁취향	-14576
▁코드	-14577
▁비전을	-14578
▁못하	-14579
▁틸러	-14580
▁지역주민	-14581
▁상이	-14582
▁약물	-14583
▁당시의	-14584
는지를	-14585
▁판단해	-14586
▁분명했다	-14587
▁농어	-14588
▁긴장을	-14589
플루	-14590
▁KEB	-14591
▁두어	-14592
▁남기고	-14593
▁법령	-14594
▁용기	-14595
▁공급이	-14596
▁공청	-14597
▁영구	-14598
▁수록	-14599
▁tr	-14600
▁특사	-14601
▁불가하며	-14602
▁법원에	-14603
추어	-14604
▁눈에서	-14605
▁헤드	-14606
창출	-14607
▁랑	-14608
▁주류	-14609
▁틈을	-14610
▁스마트폰을	-14611
▁라이브	-14612
▁논쟁	-14613
▁선행	-14614
▁미달	-14615
▁제도다	-14616
▁워터	-14617
▁아시아나항공	-14618
▁서울고	-14619
▁강제로	-14620
▁학생은	-14621
▁상식	-14622
▁추운	-14623
▁제작한	-14624
과정을	-14625
기관을	-14626
▁드문	-14627
▁벗고	-14628
▁탈북	-14629
이나마	-14630
▁유난히	-14631
어린	-14632
▁소극	-14633
▁계획은	-14634
▁객실	-14635
▁차츰	-14636
▁살며시	-14637
중이신	-14638
▁깊숙이	-14639
겹게	-14640
▁달라진	-14641
▁방울	-14642
▁아키	-14643
▁사망한	-14644
▁문제점을	-14645
▁동향	-14646
생각	-14647
다나	-14648
▁좋겠다고	-14649
임대주택	-14650
졌으며	-14651
▁창문을	-14652
▁유가증권	-14653
▁만만치	-14654
▁정수	-14655
▁터트	-14656
▁에드	-14657
▁알뜰	-14658
▁나눌	-14659
▁주셨	-14660
▁파업	-14661
▁시신을	-14662
▁침묵을	-14663
셔널	-14664
▁모의	-14665
리에서	-14666
▁고지	-14667
▁양육	-14668
▁대답은	-14669
됐으나	-14670
▁특수활동	-14671
▁병역	-14672
전자가	-14673
▁논란에	-14674
▁않던	-14675
▁과거에	-14676
▁협의해	-14677
▁새하	-14678
▁쫱	-14679
▁월급	-14680
▁추가상승	-14681
▁상하이	-14682
보좌	-14683
▁cc	-14684
▁다룬	-14685
▁아주머니	-14686
▁핸드폰을	-14687
▁사람이었다	-14688
▁번씩	-14689
▁하이브리	-14690
▁실질적	-14691
▁담담	-14692
장관은	-14693
▁눈치채	-14694
▁성립	-14695
광역시	-14696
▁넘어선	-14697
▁고객은	-14698
▁가방	-14699
▁영하	-14700
▁추미애	-14701
▁흘렸다	-14702
▁소개하고	-14703
▁일원	-14704
읍니다	-14705
▁상공	-14706
▁저소득층	-14707
▁투자에	-14708
▁걱정하지	-14709
탱크	-14710
다를	-14711
▁고시	-14712
▁낮춰	-14713
▁백리	-14714
▁열대	-14715
▁치료제	-14716
▁반영된	-14717
▁건강에	-14718
▁추첨을	-14719
▁출신으로	-14720
▁마케팅을	-14721
▁의학	-14722
▁한잔	-14723
▁나타난다	-14724
▁주택담보대출	-14725
▁머물고	-14726
▁우습	-14727
▁제공한	-14728
화장	-14729
▁상해	-14730
형과	-14731
▁처음엔	-14732
이노베이션	-14733
▁세게	-14734
▁장이	-14735
플래	-14736
▁심판	-14737
▁일상생활	-14738
▁아티스트	-14739
▁광장	-14740
▁밀착	-14741
▁거북	-14742
▁레이저	-14743
▁한번에	-14744
▁행위가	-14745
▁비핵화와	-14746
초등학교	-14747
▁블록체	-14748
스에게	-14749
▁whe	-14750
▁공유하는	-14751
업계는	-14752
애가	-14753
▁집은	-14754
▁무시무	-14755
명령	-14756
▁변한	-14757
▁선명	-14758
▁손해를	-14759
▁저렴하게	-14760
▁EM	-14761
▁행정안전부	-14762
가능합니다	-14763
▁총선	-14764
▁내려갔다	-14765
▁떠났	-14766
▁부르고	-14767
▁김수	-14768
▁쳐다보며	-14769
업계의	-14770
처에	-14771
▁건넸	-14772
▁내장	-14773
▁항소심	-14774
▁가요	-14775
▁대검	-14776
▁점검을	-14777
▁부디	-14778
▁현수	-14779
그럼	-14780
▁해변	-14781
▁자유로운	-14782
▁틸러슨	-14783
▁인쇄	-14784
이프가	-14785
▁박상	-14786
▁따르는	-14787
▁여파로	-14788
▁박혀	-14789
▁그녀와	-14790
▁날은	-14791
지도록	-14792
▁가뭄	-14793
▁ᅳ	-14794
박을	-14795
▁안전관리	-14796
▁과감	-14797
▁상륙	-14798
▁인천시	-14799
▁유통망지원금	-14800
▁풋	-14801
집행	-14802
▁진영	-14803
▁파일	-14804
▁멍한	-14805
▁처방	-14806
▁크다는	-14807
▁김여	-14808
▁나라는	-14809
▁잠자	-14810
▁롯데백화점	-14811
▁경제에	-14812
▁연기가	-14813
진흥원	-14814
▁신을	-14815
▁시연	-14816
▁손목을	-14817
▁공격적으로	-14818
▁행사에서	-14819
▁작고	-14820
▁속삭였다	-14821
▁변화없이	-14822
▁직원을	-14823
▁국빈	-14824
▁이뤘	-14825
▁실감	-14826
지노	-14827
골이	-14828
▁미얀마	-14829
▁최고치를	-14830
▁시티	-14831
대회에서	-14832
해준다	-14833
▁동대문	-14834
▁비교를	-14835
▁만들어야	-14836
▁우두	-14837
▁것만으로도	-14838
커피	-14839
▁정상은	-14840
▁벌어지고	-14841
▁커지는	-14842
▁아이스크	-14843
귀를	-14844
▁살폈다	-14845
▁에너지를	-14846
시다면	-14847
▁정상회담이	-14848
▁퍼부	-14849
▁힘들다	-14850
▁으쓱	-14851
▁의미하는	-14852
▁끊어	-14853
▁밝아	-14854
▁미용	-14855
난을	-14856
▁정하고	-14857
▁우회	-14858
▁모르지	-14859
대전	-14860
문화재	-14861
▁일어나고	-14862
▁빤히	-14863
▁보도에	-14864
▁그러면서도	-14865
관절	-14866
▁달간	-14867
▁학과	-14868
▁석방	-14869
▁제시되고	-14870
▁탁자	-14871
▁무너져	-14872
오른	-14873
▁중형	-14874
론가	-14875
이었기	-14876
기업으로	-14877
터의	-14878
우와	-14879
▁끊이지	-14880
▁부분으로	-14881
기프트	-14882
▁본부장은	-14883
▁출하	-14884
▁연초	-14885
▁블라디	-14886
▁브리핑에서	-14887
▁합의에	-14888
지역을	-14889
▁입었다	-14890
병에	-14891
매장	-14892
▁흔들며	-14893
▁감사드립니다	-14894
▁진행을	-14895
▁신재생에너지	-14896
담배	-14897
이체	-14898
▁선진국	-14899
▁문자로	-14900
▁있잖아	-14901
▁노리고	-14902
▁잇달아	-14903
▁멈추었다	-14904
▁생명의	-14905
▁배울	-14906
▁닷	-14907
선가	-14908
▁일대에서	-14909
▁최소한의	-14910
▁정상적으로	-14911
▁개선과	-14912
▁휘둘러	-14913
▁예보	-14914
▁고성능	-14915
드려도	-14916
회의에	-14917
▁자격이	-14918
▁박종	-14919
쓛봞	-14920
▁바뀌었다	-14921
▁커진	-14922
▁스트리	-14923
▁안전성	-14924
▁오너	-14925
▁지난해보다	-14926
▁현지에서	-14927
▁빙그레	-14928
▁쓰이는	-14929
래를	-14930
▁라이짐	-14931
▁관계에	-14932
▁소나무	-14933
▁포토	-14934
▁업계는	-14935
▁청정	-14936
▁감촉	-14937
▁엉덩이를	-14938
▁증거가	-14939
▁최장	-14940
▁부통령	-14941
▁광양	-14942
▁덕에	-14943
▁주한미군	-14944
▁천재	-14945
▁찻	-14946
▁신고리	-14947
▁0224	-14948
▁온가족할인	-14949
▁열이	-14950
겨운	-14951
▁톡톡	-14952
▁현황을	-14953
▁사람처럼	-14954
▁인텔	-14955
레나	-14956
▁걸리	-14957
▁내역	-14958
▁테이블에	-14959
▁위약금은	-14960
▁대응하기	-14961
▁남는	-14962
▁명확한	-14963
▁이마를	-14964
▁나랑	-14965
▁세일	-14966
▁탁월한	-14967
▁컨테이너	-14968
었으니	-14969
ide	-14970
▁알레	-14971
▁하락한	-14972
▁만나서	-14973
년보다	-14974
▁체제를	-14975
케미칼	-14976
▁한복	-14977
▁업계에서는	-14978
▁상습	-14979
▁어딜	-14980
▁유산	-14981
▁찢어	-14982
활동에	-14983
은행과	-14984
▁저에게	-14985
방식	-14986
▁어리석은	-14987
▁실려	-14988
▁설명할	-14989
여름	-14990
▁터널	-14991
다니는	-14992
▁느긋	-14993
하실까요	-14994
룡은	-14995
유럽	-14996
▁풀고	-14997
르륵	-14998
▁안도	-14999
▁테라	-15000
호흡	-15001
▁말만	-15002
▁있네	-15003
▁김장	-15004
▁광고를	-15005
▁슬퍼	-15006
▁나무를	-15007
지나	-15008
▁제국의	-15009
▁해병	-15010
▁여인은	-15011
▁검정	-15012
▁서식	-15013
▁거꾸	-15014
▁벌이는	-15015
▁든든	-15016
▁인스타그램	-15017
▁껄	-15018
▁물은	-15019
▁국민적	-15020
▁노력해	-15021
▁일자리가	-15022
▁성실	-15023
▁기울이고	-15024
력발전	-15025
▁장거리	-15026
▁극심한	-15027
▁빀	-15028
▁과열	-15029
▁그룹의	-15030
▁실어	-15031
▁씨익	-15032
▁없었을	-15033
▁그리곤	-15034
▁포켓	-15035
▁마음껏	-15036
▁시를	-15037
▁축산	-15038
▁뜻하는	-15039
풀에	-15040
▁마나	-15041
▁말았	-15042
▁차원	-15043
▁would	-15044
상도	-15045
▁것이나	-15046
견은	-15047
▁예금	-15048
▁루드	-15049
▁우리들	-15050
▁일부가	-15051
▁느껴진다	-15052
▁바이어	-15053
▁법원의	-15054
▁순수한	-15055
▁문의가	-15056
▁한국지엠	-15057
▁불가한	-15058
▁공매	-15059
▁여동	-15060
▁꾹	-15061
▁애니메이션	-15062
▁계속되는	-15063
▁영문	-15064
▁생일	-15065
평가를	-15066
▁뿌려	-15067
▁관계부처	-15068
▁매진	-15069
만원까지	-15070
▁마도	-15071
▁뿐이	-15072
과세	-15073
▁흩어져	-15074
▁동사에	-15075
▁신앙	-15076
▁로즈	-15077
▁이재명	-15078
▁찌푸렸다	-15079
▁이득	-15080
▁들의	-15081
광고	-15082
ort	-15083
▁우대	-15084
▁큑뱻	-15085
▁파주	-15086
▁대륙간	-15087
▁실리콘	-15088
병원은	-15089
▁합리적	-15090
▁지팡	-15091
▁정보기술	-15092
짱을	-15093
▁하여간	-15094
▁마을에	-15095
▁즐기고	-15096
등의	-15097
▁각각의	-15098
▁잡아당	-15099
▁부모가	-15100
▁지원과	-15101
▁권역	-15102
▁일으킬	-15103
▁마리의	-15104
▁맛과	-15105
▁되는지	-15106
▁프로그램으로	-15107
사진을	-15108
▁LNG	-15109
▁달렸다	-15110
▁녀석들이	-15111
▁인정하지	-15112
▁전문가들의	-15113
▁드림	-15114
▁위협을	-15115
▁털썩	-15116
▁해결하는	-15117
▁태도로	-15118
여명	-15119
▁BNK	-15120
▁송금	-15121
▁상담이	-15122
▁수준에서	-15123
▁사라지는	-15124
미르	-15125
▁하마	-15126
▁했기	-15127
▁팀장은	-15128
▁bc	-15129
조달	-15130
▁문제다	-15131
▁증대	-15132
▁신음을	-15133
분쟁	-15134
▁무겁	-15135
▁말아요	-15136
▁신화	-15137
▁흑의	-15138
▁될까	-15139
사로부터	-15140
▁후작	-15141
▁지속가능한	-15142
놓는	-15143
▁선언했다	-15144
직자	-15145
▁고등학생	-15146
세서	-15147
▁예방을	-15148
▁흑자	-15149
▁아래에	-15150
▁불만이	-15151
▁너와	-15152
▁많았고	-15153
▁무효	-15154
▁모른다고	-15155
▁목표가	-15156
▁행위에	-15157
▁보름	-15158
▁향하고	-15159
▁도착했다	-15160
기간에	-15161
겠냐	-15162
▁저주	-15163
▁일본에	-15164
▁경찰관	-15165
▁대학에	-15166
▁주어진	-15167
▁재임	-15168
▁투어	-15169
▁거제	-15170
해져서	-15171
지역에서	-15172
▁하다니	-15173
▁갇혀	-15174
▁대공	-15175
▁밑에서	-15176
톨릭	-15177
▁얼굴에는	-15178
▁부총리	-15179
▁나타나지	-15180
▁경로	-15181
▁전망을	-15182
사실	-15183
▁바지	-15184
봉을	-15185
▁고전	-15186
▁개인이	-15187
▁수출이	-15188
▁예민	-15189
▁블룸	-15190
매는	-15191
▁경우를	-15192
▁예산안	-15193
▁군대	-15194
에스	-15195
▁낚시	-15196
▁락	-15197
련이	-15198
▁병이	-15199
시간은	-15200
▁기기변경시	-15201
▁덒래봞	-15202
▁조사해	-15203
급식	-15204
▁법칙	-15205
▁91	-15206
▁필름	-15207
▁한국당이	-15208
▁투자해	-15209
▁신성장	-15210
▁폭풍	-15211
멘텀	-15212
▁상정	-15213
시켜야	-15214
▁실시할	-15215
▁활성화에	-15216
▁베를린	-15217
▁사용중인	-15218
삼성	-15219
▁마켓	-15220
셨어요	-15221
▁브레이	-15222
▁진에	-15223
▁떠올렸다	-15224
▁no	-15225
▁군인	-15226
▁휴대전	-15227
지금	-15228
천억원	-15229
▁설명해	-15230
상공회의	-15231
플라	-15232
▁상주	-15233
▁내용도	-15234
▁어렸을	-15235
▁조기에	-15236
지니어링	-15237
▁반항	-15238
▁정전	-15239
거를	-15240
▁평상	-15241
▁태스크포	-15242
ime	-15243
플랫폼	-15244
▁개정안은	-15245
송이	-15246
▁라이트할부	-15247
▁무게를	-15248
▁바라보다가	-15249
▁조화	-15250
▁작곡	-15251
▁보조금	-15252
▁강화하기	-15253
▁거둔	-15254
▁돌아다	-15255
▁투자자들의	-15256
▁덮어	-15257
▁스몰	-15258
▁규탄	-15259
▁인내	-15260
▁화염	-15261
▁필요성이	-15262
▁구역	-15263
▁물어보	-15264
▁there	-15265
룡의	-15266
절차	-15267
▁반영되지	-15268
▁엄중	-15269
▁청춘	-15270
▁ᅲᅲ	-15271
▁고맙습니다	-15272
▁잔인	-15273
▁하느	-15274
▁주인은	-15275
소장	-15276
▁은빛	-15277
▁지난해에는	-15278
▁행정부	-15279
▁다고	-15280
시장과	-15281
▁성명	-15282
▁흔들리는	-15283
▁전남도	-15284
▁닮은	-15285
▁한심	-15286
▁집중할	-15287
▁교역	-15288
▁안성	-15289
▁경제정책	-15290
▁공시했다	-15291
▁적용하는	-15292
▁비공	-15293
▁쫓겨	-15294
▁말부터	-15295
▁시끄러	-15296
웠고	-15297
▁원화	-15298
신과	-15299
▁지쳐	-15300
▁미간을	-15301
▁셔	-15302
▁과태료	-15303
▁다닐	-15304
소리에	-15305
▁작품은	-15306
▁계속되고	-15307
▁공식적으로	-15308
기관으로	-15309
▁한류	-15310
▁달라질	-15311
▁주둔	-15312
▁없는지	-15313
▁무안	-15314
▁칼로	-15315
년간의	-15316
▁불합	-15317
▁신은	-15318
코의	-15319
▁낸다	-15320
질로	-15321
▁안았다	-15322
▁사은품은	-15323
kg	-15324
구성	-15325
▁구급	-15326
▁실명	-15327
FP	-15328
감치	-15329
▁전복	-15330
수령	-15331
▁줘야	-15332
▁그렇기	-15333
▁살펴보고	-15334
슨의	-15335
용이	-15336
▁자율주행차	-15337
▁노벨	-15338
▁처리할	-15339
▁띄는	-15340
▁안개	-15341
오자	-15342
▁강호	-15343
가정	-15344
보유	-15345
으로만	-15346
▁사천	-15347
▁데서	-15348
▁실수를	-15349
었으면	-15350
▁자들이	-15351
간다는	-15352
▁때면	-15353
▁핵무기	-15354
억여	-15355
만으로는	-15356
범은	-15357
▁엉뚱한	-15358
▁알면서도	-15359
▁일정이	-15360
▁사업비	-15361
해서요	-15362
▁상하	-15363
RI	-15364
▁been	-15365
신경	-15366
▁넘쳐	-15367
▁내각	-15368
▁존재한다	-15369
▁겐	-15370
▁멈추지	-15371
돌고	-15372
▁군이	-15373
▁알아볼	-15374
▁관료	-15375
▁종일	-15376
▁입금	-15377
▁나중	-15378
▁전일	-15379
▁그만두	-15380
벌이	-15381
검사를	-15382
▁반해	-15383
만큼이나	-15384
매니저	-15385
▁키우	-15386
▁정선	-15387
일지	-15388
▁빓	-15389
▁등재	-15390
균형	-15391
▁권익	-15392
▁냉동	-15393
▁안타까운	-15394
▁의원도	-15395
▁죄송하지만	-15396
걸이	-15397
했으면	-15398
▁벗어난	-15399
▁하시면	-15400
▁흐흐	-15401
▁설치하고	-15402
▁피하기	-15403
▁이르러	-15404
▁경북도	-15405
▁구할	-15406
▁자기도	-15407
▁먹기	-15408
레니	-15409
▁태워	-15410
▁성취	-15411
▁쪽은	-15412
▁크기의	-15413
리아가	-15414
▁남구	-15415
투성이	-15416
▁명문	-15417
▁배워	-15418
▁위원회	-15419
▁지을	-15420
▁캠핑	-15421
▁두렵	-15422
였으며	-15423
▁말씀해주시면	-15424
▁이벤트도	-15425
▁다음은	-15426
▁망가	-15427
▁512	-15428
▁극대화	-15429
▁서울로	-15430
▁매력을	-15431
▁놈들	-15432
▁시계	-15433
▁소감을	-15434
▁점유율	-15435
▁진상규	-15436
▁당하는	-15437
▁대꾸했다	-15438
▁브리핑을	-15439
수에서	-15440
▁영호	-15441
콘서	-15442
▁이해관계	-15443
▁잤	-15444
▁돌린	-15445
데다	-15446
익은	-15447
▁연이어	-15448
▁차량에	-15449
시키지	-15450
▁머무	-15451
석으로	-15452
▁도발을	-15453
▁가성	-15454
▁소재를	-15455
하듯이	-15456
▁하도급	-15457
▁전문가들이	-15458
쓰는	-15459
▁아니었지만	-15460
비한	-15461
▁멍청한	-15462
▁일선	-15463
▁신호를	-15464
▁해주세요	-15465
▁연락처	-15466
▁깨고	-15467
▁현대백화점	-15468
쒨덦	-15469
▁체납	-15470
▁국채	-15471
▁다자	-15472
▁당기순	-15473
▁삼성물산	-15474
회담을	-15475
▁시점에서	-15476
▁나자	-15477
이었을	-15478
량과	-15479
▁공자	-15480
▁세균	-15481
▁하필	-15482
▁공존	-15483
▁이틀간	-15484
어드	-15485
▁환하게	-15486
판으로	-15487
▁중점을	-15488
▁월정액	-15489
▁생계	-15490
▁직전에	-15491
개소	-15492
▁많다고	-15493
▁얇은	-15494
▁밀고	-15495
▁스토리	-15496
▁누구에게	-15497
▁예상됩니다	-15498
▁공급을	-15499
▁한도	-15500
들며	-15501
▁us	-15502
▁한경	-15503
▁효율적으로	-15504
▁날개	-15505
▁자녀를	-15506
▁장점이	-15507
위원장의	-15508
▁갑옷	-15509
봞밻	-15510
▁브로	-15511
▁나르	-15512
▁나가겠다	-15513
▁수료	-15514
▁쵡	-15515
▁울음을	-15516
▁저가	-15517
▁성수	-15518
▁뜰	-15519
키가	-15520
▁해준	-15521
▁돌아섰다	-15522
▁부산시는	-15523
▁드러낸	-15524
과열	-15525
▁서울에	-15526
▁파악됐다	-15527
저가	-15528
차례에	-15529
▁모순	-15530
▁빠르고	-15531
단위	-15532
청사	-15533
▁차량의	-15534
클로	-15535
▁코인	-15536
▁동안에	-15537
▁부른다	-15538
▁유령	-15539
▁압력을	-15540
요금제로	-15541
▁금리를	-15542
▁업무상	-15543
떻게	-15544
▁발동	-15545
▁1200	-15546
슨이	-15547
▁시집	-15548
▁증가에	-15549
하르	-15550
지원금약정	-15551
▁공제	-15552
▁저평가	-15553
▁남한	-15554
▁화폐	-15555
증명	-15556
▁업무에	-15557
▁것이라면서	-15558
▁부스	-15559
▁판매하고	-15560
▁각국	-15561
▁언제쯤	-15562
유는	-15563
가면서	-15564
터로	-15565
▁그림자가	-15566
타이	-15567
▁비서관	-15568
IST	-15569
▁뒤돌아	-15570
▁수석은	-15571
▁통하는	-15572
▁크루즈	-15573
▁불교	-15574
▁왕은	-15575
▁사용하시는	-15576
▁CI	-15577
가구가	-15578
업체가	-15579
▁가지를	-15580
▁있긴	-15581
원식	-15582
▁불빛	-15583
▁상관이	-15584
▁회원국	-15585
▁유방	-15586
협력을	-15587
▁받았고	-15588
▁뒀	-15589
▁가입이	-15590
▁검사가	-15591
▁공사가	-15592
▁잃었다	-15593
▁영업이익이	-15594
▁입는	-15595
▁건물이	-15596
▁보살	-15597
▁가정의	-15598
▁운명	-15599
▁히로	-15600
소통	-15601
겠느냐	-15602
가지를	-15603
▁MOU	-15604
▁권장	-15605
업체인	-15606
▁펑	-15607
아무	-15608
학은	-15609
▁국무총리	-15610
▁처리가	-15611
▁마련된다	-15612
▁세종시	-15613
▁따스	-15614
▁혹시나	-15615
▁김광	-15616
▁주목할	-15617
판은	-15618
▁한바	-15619
▁당국의	-15620
▁클레	-15621
▁팽팽	-15622
▁차관은	-15623
▁아버지와	-15624
손이	-15625
▁주장이다	-15626
▁거느	-15627
루만	-15628
▁곳의	-15629
▁운반	-15630
효과가	-15631
▁구매하실	-15632
▁조국	-15633
▁상인	-15634
▁서대문	-15635
▁ES	-15636
▁성큼	-15637
▁검토해	-15638
42	-15639
서요	-15640
▁기프트	-15641
▁처녀	-15642
▁것이지만	-15643
지연	-15644
▁개인적인	-15645
▁일산	-15646
▁고민하고	-15647
▁하면서도	-15648
▁밖을	-15649
▁사람에	-15650
▁옴	-15651
▁2025	-15652
▁수와	-15653
▁디저	-15654
▁있을지도	-15655
▁늘릴	-15656
시설과	-15657
▁꺼져	-15658
▁순순	-15659
▁콤	-15660
하느냐	-15661
▁폴리	-15662
당으로	-15663
▁남편의	-15664
▁후보와	-15665
▁교황	-15666
▁소장은	-15667
▁떨어지지	-15668
▁언제부터	-15669
▁개최된	-15670
▁긴장이	-15671
▁매매의견을	-15672
▁일들이	-15673
▁케어	-15674
▁의혹과	-15675
▁한국어	-15676
▁폭을	-15677
더는	-15678
▁가다듬	-15679
▁지진이	-15680
▁눈높	-15681
▁대면	-15682
▁서귀	-15683
▁차로	-15684
▁북한과의	-15685
▁안전하고	-15686
▁국민과	-15687
▁혼란을	-15688
▁실습	-15689
강도	-15690
▁여행객	-15691
▁있겠는가	-15692
▁초콜	-15693
▁다짐했다	-15694
▁블로그	-15695
▁고함	-15696
▁봐요	-15697
▁사용자가	-15698
▁침대에서	-15699
찌감치	-15700
68	-15701
▁정도면	-15702
랄까	-15703
▁마리가	-15704
▁간섭	-15705
▁진학	-15706
▁약세	-15707
▁사람이다	-15708
▁위주의	-15709
▁듣자	-15710
▁루이	-15711
▁가늠	-15712
▁자신감을	-15713
▁죽었다	-15714
▁서비스도	-15715
▁고독	-15716
▁프로그램에	-15717
art	-15718
▁어딘가	-15719
▁집중하고	-15720
▁희귀	-15721
▁일정으로	-15722
▁구매하시는	-15723
▁씉	-15724
▁여왕	-15725
북부	-15726
▁다르지	-15727
▁둘러보았다	-15728
▁더는	-15729
▁정권이	-15730
▁DB	-15731
워치	-15732
▁자외	-15733
▁해리	-15734
기에서	-15735
▁안정적	-15736
▁상징하는	-15737
▁경험과	-15738
▁아이들에게	-15739
▁리얼	-15740
▁매트	-15741
▁타격	-15742
▁아팠	-15743
▁전망도	-15744
▁기사에	-15745
▁보이기	-15746
▁밀접	-15747
▁언젠가는	-15748
절차를	-15749
리얼	-15750
▁여론이	-15751
▁기장	-15752
차고	-15753
▁요청한	-15754
움의	-15755
▁큭	-15756
▁투자자들이	-15757
▁대비한	-15758
▁대표로	-15759
▁시흥	-15760
▁이보다	-15761
스트를	-15762
▁리오는	-15763
▁이메일	-15764
▁못했을	-15765
▁씽크	-15766
▁사격	-15767
▁높을	-15768
▁지식을	-15769
▁뜨겁	-15770
▁원격	-15771
▁이튿	-15772
▁카드로	-15773
▁날카롭게	-15774
▁죽이는	-15775
▁정상회담에서	-15776
▁수월	-15777
▁수질	-15778
▁정부서울	-15779
님도	-15780
▁보람	-15781
▁찾아야	-15782
▁침묵이	-15783
▁퀄	-15784
▁소개한다	-15785
하겠지만	-15786
▁운명을	-15787
ice	-15788
▁거에요	-15789
CD	-15790
▁위치에	-15791
▁한국거래	-15792
▁줬다	-15793
▁웨이	-15794
▁김영철	-15795
▁비정상적인	-15796
▁울부	-15797
▁포기하고	-15798
봐요	-15799
▁차는	-15800
할부금	-15801
▁나을	-15802
▁정체를	-15803
▁블룸버그	-15804
▁과시	-15805
단에서	-15806
▁둘의	-15807
▁흐름이	-15808
회복	-15809
▁잊을	-15810
▁하늘에	-15811
▁출장	-15812
▁유럽의	-15813
▁안드로	-15814
▁정서	-15815
받게	-15816
보의	-15817
자라는	-15818
▁튀어	-15819
▁센트	-15820
▁분야는	-15821
▁룰	-15822
▁물건이	-15823
▁목표는	-15824
▁가리켰다	-15825
리번	-15826
▁해드리겠습니다	-15827
▁내놓을	-15828
▁장중	-15829
해준	-15830
▁오만	-15831
▁자란	-15832
▁먹었다	-15833
▁동계	-15834
▁팔레	-15835
▁엎드려	-15836
▁어디선가	-15837
▁원내대표가	-15838
▁비난했다	-15839
▁나흘	-15840
▁걱정을	-15841
내역	-15842
자까지	-15843
▁도주	-15844
▁묶여	-15845
보드	-15846
▁알렸다	-15847
▁아이패드	-15848
▁트레	-15849
▁인생의	-15850
▁분석되고	-15851
아웃	-15852
▁말하기	-15853
ough	-15854
▁입지를	-15855
▁환경에서	-15856
▁클린	-15857
▁장소로	-15858
박이	-15859
▁변동성이	-15860
▁제외하고는	-15861
의의	-15862
▁금일	-15863
▁World	-15864
▁대통령도	-15865
▁관련하여	-15866
▁싫어하는	-15867
▁제게	-15868
▁구호	-15869
are	-15870
▁디젤	-15871
▁땅이	-15872
오면	-15873
▁같군	-15874
▁진한	-15875
▁강조하고	-15876
▁처한	-15877
충전	-15878
▁말려	-15879
▁돌아왔	-15880
▁해치	-15881
▁무기한	-15882
▁조성해	-15883
▁알아보기	-15884
▁움츠	-15885
▁헤아	-15886
▁입시	-15887
▁정부도	-15888
와이	-15889
▁영토	-15890
▁부상을	-15891
▁자신에	-15892
수출	-15893
기인	-15894
▁사진이	-15895
▁강사	-15896
▁부회장의	-15897
PS	-15898
▁업체들이	-15899
▁언제든	-15900
▁주셔서	-15901
▁응용	-15902
▁아픔을	-15903
▁한다면서	-15904
▁쉬는	-15905
▁힘에	-15906
▁판단하고	-15907
▁실정이다	-15908
▁텔레비	-15909
강한	-15910
▁밀어붙	-15911
그린	-15912
▁버린다	-15913
▁빳	-15914
▁객관적으로	-15915
▁일순	-15916
▁쉽다	-15917
뾦톏	-15918
족을	-15919
▁일단은	-15920
▁앞에는	-15921
▁어느덧	-15922
▁선관	-15923
▁연구소	-15924
▁기술개발	-15925
▁악용	-15926
▁흥행	-15927
▁볼을	-15928
▁섰	-15929
발표	-15930
▁도련	-15931
렬하게	-15932
▁바람의	-15933
터에	-15934
▁싶었던	-15935
▁묻은	-15936
▁일체	-15937
▁어두워	-15938
▁업체의	-15939
▁전문성을	-15940
▁빠져나가	-15941
▁부들부들	-15942
▁서쪽	-15943
▁수단으로	-15944
▁잃어버린	-15945
▁애가	-15946
▁된다며	-15947
▁예정이	-15948
▁공수	-15949
▁오렌	-15950
작전	-15951
▁정시	-15952
▁국가를	-15953
▁개발하는	-15954
▁돌아오지	-15955
▁상품의	-15956
▁모멘텀	-15957
수술	-15958
▁돈으로	-15959
▁의식이	-15960
▁스카이	-15961
▁벗어날	-15962
▁거꾸로	-15963
55	-15964
▁명백	-15965
▁시체를	-15966
더스	-15967
▁공약을	-15968
▁주민이	-15969
▁갖는다	-15970
▁볶	-15971
▁내용이다	-15972
▁드린	-15973
▁트래	-15974
▁노동조합	-15975
▁시행하고	-15976
▁법정대리	-15977
▁촫	-15978
▁데뷔	-15979
▁상회	-15980
▁일본군	-15981
▁송치	-15982
레의	-15983
▁소재로	-15984
▁인제	-15985
▁학생부	-15986
▁받아들이지	-15987
▁이집트	-15988
▁일행이	-15989
소리와	-15990
▁끝났다	-15991
▁휴일	-15992
▁세계가	-15993
일지도	-15994
▁침수	-15995
▁수성	-15996
너무	-15997
▁배고	-15998
▁인종	-15999
▁제갈	-16000
▁패밀리	-16001
▁현주	-16002
▁판사	-16003
▁주름	-16004
▁싶어요	-16005
▁중으로	-16006
▁1997	-16007
▁참아	-16008
▁기저	-16009
관리에	-16010
경험	-16011
의약품안전	-16012
▁요구가	-16013
▁어둡	-16014
▁돌아보	-16015
팅을	-16016
거라고	-16017
▁남겼다	-16018
신으로	-16019
▁불거진	-16020
▁전동	-16021
▁ETF	-16022
▁현암	-16023
▁빚을	-16024
▁선생님이	-16025
▁만지	-16026
▁이것도	-16027
▁받아서	-16028
예를	-16029
▁이튿날	-16030
▁느낀다	-16031
▁법안을	-16032
자이	-16033
▁괴로워	-16034
97	-16035
▁증상	-16036
신저	-16037
▁드레	-16038
▁국적	-16039
▁주된	-16040
▁협회	-16041
티아	-16042
▁변하지	-16043
▁아랑곳	-16044
▁라스	-16045
44	-16046
신청을	-16047
▁그치지	-16048
▁손꼽	-16049
▁못했다고	-16050
▁관통	-16051
▁괜찮아요	-16052
▁화제를	-16053
▁꽁	-16054
▁이화	-16055
▁분석하고	-16056
▁수산물	-16057
▁서귀포	-16058
상황을	-16059
▁쓰러졌다	-16060
미와	-16061
▁금융감독원	-16062
▁주민의	-16063
▁감기	-16064
▁고의	-16065
▁과다	-16066
▁이렇다	-16067
▁순위	-16068
효과를	-16069
▁낭비	-16070
마블	-16071
▁은근히	-16072
궁의	-16073
수리	-16074
▁ᅮ	-16075
▁받았던	-16076
▁이토록	-16077
운다	-16078
▁수행할	-16079
▁남자와	-16080
▁늘면서	-16081
RT	-16082
▁서울을	-16083
▁달에	-16084
▁삶에	-16085
▁앞세워	-16086
심사를	-16087
▁전통적인	-16088
▁넘긴	-16089
회의실에서	-16090
▁벌리고	-16091
▁키움	-16092
▁시카	-16093
▁확대와	-16094
▁만다	-16095
▁차이는	-16096
▁시위를	-16097
▁이익이	-16098
신탁	-16099
▁기능성	-16100
▁상승에	-16101
▁태도가	-16102
▁양국의	-16103
저널	-16104
있다고	-16105
▁해명	-16106
수입	-16107
▁것이냐	-16108
▁주의가	-16109
▁싫다	-16110
▁후계	-16111
▁무죄를	-16112
▁간이	-16113
▁헤헤	-16114
공모	-16115
▁운이	-16116
▁붳	-16117
▁비치	-16118
▁인체	-16119
▁직영	-16120
▁톤	-16121
▁날개를	-16122
▁총리의	-16123
▁무소속	-16124
▁연체	-16125
챔피	-16126
▁주장한	-16127
▁연구에	-16128
▁내려와	-16129
▁속에는	-16130
▁클로	-16131
소서	-16132
이런	-16133
▁국가대표	-16134
번의	-16135
▁생긴다	-16136
▁대대적인	-16137
▁뒷모습을	-16138
▁있었다며	-16139
▁양은	-16140
▁혐의에	-16141
▁룸	-16142
▁국회를	-16143
마일	-16144
▁요리를	-16145
▁완성차	-16146
▁북쪽	-16147
▁연인	-16148
순은	-16149
▁멈춘	-16150
▁바라본다	-16151
지표	-16152
능한	-16153
▁아홉	-16154
▁청년은	-16155
잖은	-16156
▁세븐	-16157
래덕봞	-16158
키지	-16159
▁치료가	-16160
▁재가	-16161
▁이르렀다	-16162
▁과제로	-16163
▁제품과	-16164
투자증권의	-16165
▁허공에	-16166
▁대림	-16167
▁책이	-16168
▁정책은	-16169
▁른	-16170
서부	-16171
▁오케	-16172
▁숲을	-16173
▁개최한	-16174
▁확보에	-16175
▁따랐다	-16176
▁푼	-16177
▁기내	-16178
▁주장에	-16179
▁보건복지부	-16180
상태를	-16181
▁자체적으로	-16182
▁원로	-16183
▁면서도	-16184
▁벤치	-16185
▁지속가능	-16186
백이	-16187
▁판매량이	-16188
협회가	-16189
▁AS	-16190
▁대사는	-16191
▁못했지만	-16192
▁배에	-16193
▁뾳	-16194
▁어라	-16195
▁것들	-16196
량에	-16197
▁개발이	-16198
▁바라고	-16199
▁마법의	-16200
▁배우고	-16201
▁다친	-16202
제조	-16203
청소	-16204
▁라운	-16205
▁가능하	-16206
▁배제할	-16207
▁행위는	-16208
▁1995	-16209
▁분의	-16210
소비자	-16211
▁주민등록	-16212
▁민관	-16213
▁채취	-16214
▁부탁을	-16215
물고	-16216
▁복무	-16217
▁사임	-16218
▁긴밀히	-16219
▁대주	-16220
▁인정하는	-16221
▁확정된	-16222
▁파묻	-16223
▁숨겨	-16224
▁결정은	-16225
▁마자	-16226
▁보호무역	-16227
▁하룻	-16228
▁물결	-16229
▁땀이	-16230
▁경의	-16231
▁치아	-16232
▁사우디	-16233
점인	-16234
▁청년의	-16235
▁왔는데	-16236
▁일어나서	-16237
▁줄리	-16238
▁악몽	-16239
▁면적	-16240
어링	-16241
▁반포	-16242
▁좋다는	-16243
▁PD	-16244
▁자격을	-16245
▁바이올	-16246
으니까요	-16247
▁노선을	-16248
▁소득이	-16249
▁시종	-16250
▁금융위	-16251
▁요구할	-16252
약이	-16253
▁지지율	-16254
개동	-16255
▁다물고	-16256
시길	-16257
자라고	-16258
▁건전	-16259
▁소리야	-16260
▁달성했다	-16261
▁당신도	-16262
▁궁금합니다	-16263
▁해석된다	-16264
▁개최하고	-16265
▁이동평균	-16266
▁카톡	-16267
▁면밀히	-16268
▁뚜껑	-16269
[...]
